{
  "version": "1.0",
  "truncation": null,
  "padding": null,
  "added_tokens": [
    {
      "id": 0,
      "content": "<|UNK|>",
      "single_word": false,
      "lstrip": false,
      "rstrip": false,
      "normalized": false,
      "special": true
    },
    {
      "id": 1,
      "content": "<|BOS|>",
      "single_word": false,
      "lstrip": false,
      "rstrip": false,
      "normalized": false,
      "special": true
    },
    {
      "id": 2,
      "content": "<|EOS|>",
      "single_word": false,
      "lstrip": false,
      "rstrip": false,
      "normalized": false,
      "special": true
    },
    {
      "id": 3,
      "content": "<|PAD|>",
      "single_word": false,
      "lstrip": false,
      "rstrip": false,
      "normalized": false,
      "special": true
    },
    {
      "id": 4,
      "content": "<|MASK|>",
      "single_word": false,
      "lstrip": false,
      "rstrip": false,
      "normalized": false,
      "special": true
    }
  ],
  "normalizer": {
    "type": "NFKC"
  },
  "pre_tokenizer": {
    "type": "ByteLevel",
    "add_prefix_space": true,
    "trim_offsets": true,
    "use_regex": true
  },
  "post_processor": {
    "type": "TemplateProcessing",
    "single": [
      {
        "SpecialToken": {
          "id": "<|BOS|>",
          "type_id": 0
        }
      },
      {
        "Sequence": {
          "id": "A",
          "type_id": 0
        }
      },
      {
        "SpecialToken": {
          "id": "<|EOS|>",
          "type_id": 0
        }
      }
    ],
    "pair": [
      {
        "SpecialToken": {
          "id": "<|BOS|>",
          "type_id": 0
        }
      },
      {
        "Sequence": {
          "id": "A",
          "type_id": 0
        }
      },
      {
        "SpecialToken": {
          "id": "<|EOS|>",
          "type_id": 0
        }
      },
      {
        "Sequence": {
          "id": "B",
          "type_id": 1
        }
      },
      {
        "SpecialToken": {
          "id": "<|EOS|>",
          "type_id": 1
        }
      }
    ],
    "special_tokens": {
      "<|BOS|>": {
        "id": "<|BOS|>",
        "ids": [
          1
        ],
        "tokens": [
          "<|BOS|>"
        ]
      },
      "<|EOS|>": {
        "id": "<|EOS|>",
        "ids": [
          2
        ],
        "tokens": [
          "<|EOS|>"
        ]
      }
    }
  },
  "decoder": {
    "type": "ByteLevel",
    "add_prefix_space": true,
    "trim_offsets": true,
    "use_regex": true
  },
  "model": {
    "type": "BPE",
    "dropout": null,
    "unk_token": "<|UNK|>",
    "continuing_subword_prefix": null,
    "end_of_word_suffix": null,
    "fuse_unk": false,
    "byte_fallback": false,
    "ignore_merges": false,
    "vocab": {
      "<|UNK|>": 0,
      "<|BOS|>": 1,
      "<|EOS|>": 2,
      "<|PAD|>": 3,
      "<|MASK|>": 4,
      " ": 5,
      "!": 6,
      "\"": 7,
      "#": 8,
      "$": 9,
      "%": 10,
      "&": 11,
      "'": 12,
      "(": 13,
      ")": 14,
      "*": 15,
      "+": 16,
      ",": 17,
      "-": 18,
      ".": 19,
      "/": 20,
      "0": 21,
      "1": 22,
      "2": 23,
      "3": 24,
      "4": 25,
      "5": 26,
      "6": 27,
      "7": 28,
      "8": 29,
      "9": 30,
      ":": 31,
      ";": 32,
      "<": 33,
      "=": 34,
      ">": 35,
      "?": 36,
      "@": 37,
      "A": 38,
      "B": 39,
      "C": 40,
      "D": 41,
      "E": 42,
      "F": 43,
      "G": 44,
      "H": 45,
      "I": 46,
      "J": 47,
      "K": 48,
      "L": 49,
      "M": 50,
      "N": 51,
      "O": 52,
      "P": 53,
      "Q": 54,
      "R": 55,
      "S": 56,
      "T": 57,
      "U": 58,
      "V": 59,
      "W": 60,
      "X": 61,
      "Y": 62,
      "Z": 63,
      "[": 64,
      "\\": 65,
      "]": 66,
      "^": 67,
      "_": 68,
      "`": 69,
      "a": 70,
      "b": 71,
      "c": 72,
      "d": 73,
      "e": 74,
      "f": 75,
      "g": 76,
      "h": 77,
      "i": 78,
      "j": 79,
      "k": 80,
      "l": 81,
      "m": 82,
      "n": 83,
      "o": 84,
      "p": 85,
      "q": 86,
      "r": 87,
      "s": 88,
      "t": 89,
      "u": 90,
      "v": 91,
      "w": 92,
      "x": 93,
      "y": 94,
      "z": 95,
      "{": 96,
      "|": 97,
      "}": 98,
      "~": 99,
      "¡": 100,
      "¢": 101,
      "£": 102,
      "¤": 103,
      "¥": 104,
      "¦": 105,
      "§": 106,
      "¨": 107,
      "©": 108,
      "ª": 109,
      "«": 110,
      "¬": 111,
      "®": 112,
      "¯": 113,
      "°": 114,
      "±": 115,
      "²": 116,
      "³": 117,
      "´": 118,
      "µ": 119,
      "¶": 120,
      "·": 121,
      "¸": 122,
      "¹": 123,
      "º": 124,
      "»": 125,
      "¼": 126,
      "½": 127,
      "¾": 128,
      "¿": 129,
      "Â": 130,
      "Ã": 131,
      "Ä": 132,
      "Å": 133,
      "Æ": 134,
      "Ç": 135,
      "È": 136,
      "É": 137,
      "Ê": 138,
      "Ë": 139,
      "Ì": 140,
      "Í": 141,
      "Î": 142,
      "Ï": 143,
      "Ð": 144,
      "Ñ": 145,
      "Ò": 146,
      "Ó": 147,
      "Ô": 148,
      "Õ": 149,
      "Ö": 150,
      "×": 151,
      "Ø": 152,
      "Ù": 153,
      "Ú": 154,
      "Û": 155,
      "Ü": 156,
      "Ý": 157,
      "à": 158,
      "á": 159,
      "â": 160,
      "ã": 161,
      "ä": 162,
      "å": 163,
      "æ": 164,
      "ç": 165,
      "è": 166,
      "é": 167,
      "ê": 168,
      "ë": 169,
      "ì": 170,
      "í": 171,
      "ï": 172,
      "ð": 173,
      "ó": 174,
      "Ā": 175,
      "ă": 176,
      "Ĉ": 177,
      "ĉ": 178,
      "Ċ": 179,
      "č": 180,
      "ę": 181,
      "Ġ": 182,
      "Ģ": 183,
      "ģ": 184,
      "Ĥ": 185,
      "ĥ": 186,
      "Ħ": 187,
      "ħ": 188,
      "Ĩ": 189,
      "ĩ": 190,
      "Ī": 191,
      "ī": 192,
      "Ĭ": 193,
      "ĭ": 194,
      "Į": 195,
      "į": 196,
      "İ": 197,
      "ı": 198,
      "Ĳ": 199,
      "ĳ": 200,
      "Ĵ": 201,
      "ĵ": 202,
      "Ķ": 203,
      "ķ": 204,
      "ĸ": 205,
      "Ĺ": 206,
      "ĺ": 207,
      "Ļ": 208,
      "ļ": 209,
      "Ľ": 210,
      "ľ": 211,
      "Ŀ": 212,
      "ŀ": 213,
      "Ł": 214,
      "ł": 215,
      "Ń": 216,
      "Ġt": 217,
      "Ġa": 218,
      "in": 219,
      "he": 220,
      "re": 221,
      "on": 222,
      "er": 223,
      "Ġs": 224,
      "Ġthe": 225,
      "at": 226,
      "en": 227,
      "Ġc": 228,
      "Ġo": 229,
      "es": 230,
      "nd": 231,
      "ing": 232,
      "it": 233,
      "Ġw": 234,
      "or": 235,
      "al": 236,
      "Ġp": 237,
      "is": 238,
      "ou": 239,
      "Ġf": 240,
      "an": 241,
      "ed": 242,
      "Ġb": 243,
      "Ġand": 244,
      "ar": 245,
      "Ġin": 246,
      "ion": 247,
      "Ġm": 248,
      "Ġof": 249,
      "ic": 250,
      "Ġto": 251,
      "Ġd": 252,
      "le": 253,
      "ro": 254,
      "ent": 255,
      "st": 256,
      "Ġe": 257,
      "Ġh": 258,
      "ct": 259,
      "Ġth": 260,
      "Ġre": 261,
      "om": 262,
      "as": 263,
      "il": 264,
      "Ġl": 265,
      "ve": 266,
      "et": 267,
      "ly": 268,
      "Ġn": 269,
      "ation": 270,
      "ol": 271,
      "se": 272,
      "im": 273,
      "Ġg": 274,
      "ra": 275,
      "ce": 276,
      "ĠT": 277,
      "id": 278,
      "ur": 279,
      "ow": 280,
      "Ġu": 281,
      "ig": 282,
      "ch": 283,
      "ut": 284,
      "Ġbe": 285,
      "ĠS": 286,
      "Ġst": 287,
      "ot": 288,
      "ĠA": 289,
      "ver": 290,
      "Ġy": 291,
      "Ġfor": 292,
      "ul": 293,
      "Ġis": 294,
      "ir": 295,
      "Ġon": 296,
      "Ġcon": 297,
      "am": 298,
      "ĠC": 299,
      "el": 300,
      "ĠI": 301,
      "ith": 302,
      "ay": 303,
      "Ġthat": 304,
      "Ġyou": 305,
      "her": 306,
      "Ġas": 307,
      "Ġpro": 308,
      "ers": 309,
      "if": 310,
      "ad": 311,
      "Ġwith": 312,
      "em": 313,
      "ist": 314,
      "Ġex": 315,
      "ies": 316,
      "ate": 317,
      "Ġor": 318,
      "Ġwh": 319,
      "ess": 320,
      "Ġan": 321,
      "ag": 322,
      "Ġhe": 323,
      "od": 324,
      "Ġcom": 325,
      "Ġit": 326,
      "Ġal": 327,
      "âĢ": 328,
      "Ġare": 329,
      "ect": 330,
      "ter": 331,
      "ab": 332,
      "ure": 333,
      "ĠM": 334,
      "ity": 335,
      "th": 336,
      "ment": 337,
      "--": 338,
      "ive": 339,
      "iv": 340,
      "op": 341,
      "us": 342,
      "end": 343,
      "Ġv": 344,
      "ĠP": 345,
      "ore": 346,
      "qu": 347,
      "ĠThe": 348,
      "ant": 349,
      "ke": 350,
      "ĠB": 351,
      "Ġsu": 352,
      "pp": 353,
      "Ġde": 354,
      "ill": 355,
      "Ġwe": 356,
      "ac": 357,
      "and": 358,
      "ĠW": 359,
      "Ġ(": 360,
      "igh": 361,
      "ld": 362,
      "ci": 363,
      "Ġ1": 364,
      "ain": 365,
      "est": 366,
      "te": 367,
      "os": 368,
      "um": 369,
      "ĠH": 370,
      "Ġch": 371,
      "nt": 372,
      "Ġle": 373,
      "rou": 374,
      "res": 375,
      "ri": 376,
      "ort": 377,
      "ĠE": 378,
      "'s": 379,
      "rom": 380,
      "un": 381,
      "Ġne": 382,
      "ud": 383,
      "ical": 384,
      "Ġby": 385,
      "ions": 386,
      "Ġse": 387,
      "Ġat": 388,
      "ĠF": 389,
      "ĠD": 390,
      "pl": 391,
      "Ġen": 392,
      "Ġcan": 393,
      "ĠR": 394,
      "Ġha": 395,
      "all": 396,
      "ight": 397,
      "ap": 398,
      "Ġsh": 399,
      "gh": 400,
      "og": 401,
      "art": 402,
      "Ġr": 403,
      "Ġfrom": 404,
      "out": 405,
      "Ġsp": 406,
      "Ġab": 407,
      "iz": 408,
      "Ġim": 409,
      "ine": 410,
      "Ġwor": 411,
      "red": 412,
      "ĠL": 413,
      "Ġus": 414,
      "ust": 415,
      "Ġtheir": 416,
      "Ġyour": 417,
      "xt": 418,
      "Ġwas": 419,
      "ge": 420,
      "our": 421,
      "ations": 422,
      "ĠN": 423,
      "ome": 424,
      "ĠG": 425,
      "oc": 426,
      "Ġthis": 427,
      "ous": 428,
      "Ġpl": 429,
      "act": 430,
      "ard": 431,
      "ast": 432,
      "per": 433,
      "Ġad": 434,
      "ould": 435,
      "Ġint": 436,
      "Ġcomp": 437,
      "ther": 438,
      "pt": 439,
      "ide": 440,
      "ff": 441,
      "Ġhave": 442,
      "Ġ2": 443,
      "ak": 444,
      "ial": 445,
      "ult": 446,
      "ans": 447,
      "Ġwhe": 448,
      "ĠO": 449,
      "ated": 450,
      "du": 451,
      "of": 452,
      "Ġthey": 453,
      "ost": 454,
      "Ġnot": 455,
      "Ġcont": 456,
      "ance": 457,
      "Ġinc": 458,
      "Ġres": 459,
      "ell": 460,
      "ru": 461,
      "Ġdis": 462,
      "ĠĠ": 463,
      "cc": 464,
      "Ġk": 465,
      "----": 466,
      "ong": 467,
      "able": 468,
      "age": 469,
      "ich": 470,
      "are": 471,
      "ĠTh": 472,
      "ib": 473,
      "orm": 474,
      "ie": 475,
      "ĠU": 476,
      "ip": 477,
      "ual": 478,
      "text": 479,
      "Ġso": 480,
      "Ġall": 481,
      "Ġte": 482,
      "00": 483,
      "ence": 484,
      "ces": 485,
      "ary": 486,
      "ign": 487,
      "Ġme": 488,
      "vel": 489,
      "Ġabout": 490,
      "Ġun": 491,
      "ks": 492,
      "yst": 493,
      "ĠJ": 494,
      "Ġ\"": 495,
      "ĠIn": 496,
      "ents": 497,
      "ind": 498,
      "reat": 499,
      "Ġimp": 500,
      "ike": 501,
      "ep": 502,
      "ach": 503,
      "Ġcl": 504,
      "ful": 505,
      "Ġj": 506,
      "ear": 507,
      "Ġar": 508,
      "Ġapp": 509,
      "ood": 510,
      "Ġwill": 511,
      "so": 512,
      "|>": 513,
      "<|": 514,
      "endof": 515,
      "endoftext": 516,
      "Ġhel": 517,
      "ĠY": 518,
      "av": 519,
      "âĢĻ": 520,
      "The": 521,
      "ction": 522,
      "Ġhelp": 523,
      "ress": 524,
      "Ġother": 525,
      "ĠâĢ": 526,
      "ystem": 527,
      "Ġdo": 528,
      "Ġmore": 529,
      "ry": 530,
      "Ġev": 531,
      "oo": 532,
      "Ġwhich": 533,
      "Ġman": 534,
      "nder": 535,
      "ile": 536,
      "ors": 537,
      "rough": 538,
      "Ġper": 539,
      "ice": 540,
      "ition": 541,
      "ass": 542,
      "Ġinto": 543,
      "ia": 544,
      "fe": 545,
      "ec": 546,
      "ace": 547,
      "one": 548,
      "form": 549,
      "Ġhas": 550,
      "Ġthese": 551,
      "Ġthem": 552,
      "ime": 553,
      "very": 554,
      "Ġem": 555,
      "Ġcomm": 556,
      "ory": 557,
      "Ġlike": 558,
      "ities": 559,
      "ue": 560,
      "cial": 561,
      "ake": 562,
      "Ġtra": 563,
      "ater": 564,
      "Ġout": 565,
      "Ġbut": 566,
      "ens": 567,
      "ating": 568,
      "ild": 569,
      "ang": 570,
      "ren": 571,
      "ack": 572,
      "Ġwho": 573,
      "Ġup": 574,
      "ings": 575,
      "Ġhow": 576,
      "olog": 577,
      "Ġpart": 578,
      "now": 579,
      "Ġone": 580,
      "Ġfe": 581,
      "ite": 582,
      "Ġour": 583,
      "ber": 584,
      "ific": 585,
      "Ġqu": 586,
      "Ġpe": 587,
      "ose": 588,
      "king": 589,
      "Ġunder": 590,
      "ire": 591,
      "ord": 592,
      "Ġpre": 593,
      "Ġind": 594,
      "ount": 595,
      "ase": 596,
      "ame": 597,
      "ound": 598,
      "Ġwere": 599,
      "Ġro": 600,
      "ne": 601,
      "Ġits": 602,
      "au": 603,
      "Ġbet": 604,
      "ric": 605,
      "Ġhis": 606,
      "Ġsome": 607,
      "ĠSt": 608,
      "ays": 609,
      "low": 610,
      "ments": 611,
      "ons": 612,
      "ious": 613,
      "Ġbec": 614,
      "Ġalso": 615,
      "ish": 616,
      "erv": 617,
      "les": 618,
      "ail": 619,
      "Ġstud": 620,
      "Ġsuch": 621,
      "ĠCh": 622,
      "Ġcol": 623,
      "Ġdes": 624,
      "Ġthrough": 625,
      "Ġover": 626,
      "we": 627,
      "arn": 628,
      "ally": 629,
      "ates": 630,
      "Ġcons": 631,
      "uring": 632,
      "ough": 633,
      "Ġwhen": 634,
      "round": 635,
      "Ġacc": 636,
      "Ġdif": 637,
      "ub": 638,
      "Ġass": 639,
      "ph": 640,
      "Ġtime": 641,
      "lect": 642,
      "ures": 643,
      "ts": 644,
      "ĠThis": 645,
      "ond": 646,
      "rent": 647,
      "lud": 648,
      "rit": 649,
      "ĠK": 650,
      "Ġrec": 651,
      "Ġgo": 652,
      "Ġ19": 653,
      "Ġrel": 654,
      "vers": 655,
      "ĠYou": 656,
      "Ġag": 657,
      "Ġknow": 658,
      "ove": 659,
      "ms": 660,
      "ople": 661,
      "Ġtr": 662,
      "Ġmay": 663,
      ".<|": 664,
      "Ġinter": 665,
      "Ġnew": 666,
      "**": 667,
      "lic": 668,
      ").": 669,
      "ple": 670,
      "Ġthere": 671,
      "pe": 672,
      "Ġam": 673,
      "Ġeff": 674,
      "Ġthan": 675,
      "ree": 676,
      "ics": 677,
      "Ġsc": 678,
      "ob": 679,
      "row": 680,
      "ract": 681,
      "Ġwhat": 682,
      "ys": 683,
      "Ġprov": 684,
      "Ġra": 685,
      "ll": 686,
      "Ġact": 687,
      "ĠIt": 688,
      "ian": 689,
      "Ġinclud": 690,
      "Ġhad": 691,
      "Ġher": 692,
      "ov": 693,
      "alth": 694,
      "ative": 695,
      "pect": 696,
      "cess": 697,
      "Ġsa": 698,
      "Ġpeople": 699,
      "Ġ-": 700,
      "Ġinv": 701,
      "velop": 702,
      "ject": 703,
      "als": 704,
      "Ġexpl": 705,
      "ark": 706,
      "ility": 707,
      "Ġoff": 708,
      "ular": 709,
      "ced": 710,
      "stand": 711,
      "mer": 712,
      "old": 713,
      "--------": 714,
      "oth": 715,
      "chn": 716,
      "rib": 717,
      "Ġuse": 718,
      "Ġpr": 719,
      "Ġinst": 720,
      "ĠV": 721,
      "eth": 722,
      "Ġrem": 723,
      "Ġany": 724,
      "Ġwould": 725,
      "Ġlearn": 726,
      "Ġreg": 727,
      "Ġdiffe": 728,
      "Ġbeen": 729,
      "Ġtw": 730,
      "Ġif": 731,
      "Ġgen": 732,
      "irst": 733,
      "Ġneed": 734,
      "Ġwork": 735,
      "Ġatt": 736,
      "ise": 737,
      "Ġyear": 738,
      "ting": 739,
      "Ġph": 740,
      "ational": 741,
      "Ġexper": 742,
      "Ġrep": 743,
      "ns": 744,
      "get": 745,
      "'t": 746,
      "Ġbl": 747,
      "ook": 748,
      "Ġac": 749,
      "ween": 750,
      "sel": 751,
      "Ġco": 752,
      "hed": 753,
      "ased": 754,
      "Ġ3": 755,
      "Ġbetween": 756,
      "Ġexam": 757,
      "âĢĿ": 758,
      "ential": 759,
      "Ġadd": 760,
      "ife": 761,
      "tain": 762,
      "Ġdec": 763,
      "Ġdisc": 764,
      "Ġpers": 765,
      "ower": 766,
      "Ġcre": 767,
      "Ġdevelop": 768,
      "Ġprodu": 769,
      "ural": 770,
      "Ġevery": 771,
      "aking": 772,
      "Ġdi": 773,
      "iqu": 774,
      "ĠSystem": 775,
      "Ġsur": 776,
      "ĠWh": 777,
      "ives": 778,
      "Ġwhere": 779,
      "Ġmod": 780,
      "ause": 781,
      "Ġpos": 782,
      "Ġcould": 783,
      "Ġpo": 784,
      "In": 785,
      "Ġworld": 786,
      "ath": 787,
      "Ġcommun": 788,
      "ef": 789,
      "Ġtechn": 790,
      "pport": 791,
      "Ġsm": 792,
      "Ġno": 793,
      "Ġvar": 794,
      "ĠUn": 795,
      "uc": 796,
      "oy": 797,
      "Ġob": 798,
      "hes": 799,
      "ten": 800,
      "its": 801,
      "ible": 802,
      "),": 803,
      "Ġtrans": 804,
      "Ġsystem": 805,
      "Ġsign": 806,
      "ness": 807,
      "ew": 808,
      "fter": 809,
      "ily": 810,
      "ues": 811,
      "gan": 812,
      "Ġstr": 813,
      "ĠHe": 814,
      "Ġwhile": 815,
      "ices": 816,
      "wn": 817,
      "ange": 818,
      "erg": 819,
      "Ġmany": 820,
      "Ġtwo": 821,
      "ict": 822,
      "ize": 823,
      "ĠAs": 824,
      "Ġins": 825,
      "Ġassist": 826,
      "Ġhealth": 827,
      "Ġfl": 828,
      "Ġmost": 829,
      "Ġbu": 830,
      "Ġfirst": 831,
      "ram": 832,
      "cy": 833,
      "ning": 834,
      "hip": 835,
      "int": 836,
      "ines": 837,
      "Ġinf": 838,
      "Ġdifferent": 839,
      "Ġshe": 840,
      "ology": 841,
      "Ġused": 842,
      "ident": 843,
      "ism": 844,
      "Ġsim": 845,
      "Ġexp": 846,
      "iss": 847,
      "ĠâĢľ": 848,
      "Ġeven": 849,
      "Ġspec": 850,
      "Ġunderstand": 851,
      "ward": 852,
      "erm": 853,
      "ists": 854,
      "ata": 855,
      "arch": 856,
      "Ġpol": 857,
      "ution": 858,
      "Ġval": 859,
      "ature": 860,
      "hen": 861,
      "vent": 862,
      "own": 863,
      "cept": 864,
      "..": 865,
      "Ġcall": 866,
      "Ġeach": 867,
      "Ġonly": 868,
      "Ġart": 869,
      "ble": 870,
      "Ġduring": 871,
      "ade": 872,
      "Ġsub": 873,
      "fore": 874,
      "Ġpres": 875,
      "Ġmed": 876,
      "Ġ20": 877,
      "Ġusing": 878,
      "Ġjust": 879,
      "ng": 880,
      "Ġke": 881,
      "ever": 882,
      "ection": 883,
      "ick": 884,
      "ros": 885,
      "ĠâĢĵ": 886,
      "ivid": 887,
      "eng": 888,
      "ool": 889,
      "Ġhum": 890,
      "Ġhist": 891,
      "Ġimport": 892,
      "ized": 893,
      "Ġhigh": 894,
      "ps": 895,
      "led": 896,
      "ink": 897,
      "ruct": 898,
      "Ġthose": 899,
      "ĠĠĠĠ": 900,
      "Ġshould": 901,
      "other": 902,
      "Ġhelpful": 903,
      "Ġassistant": 904,
      "Ġwell": 905,
      "Ġcomple": 906,
      "Ġinform": 907,
      "Ġnum": 908,
      "Ġmy": 909,
      "Ġfol": 910,
      "Ġset": 911,
      "ĠHow": 912,
      "Ġform": 913,
      "ically": 914,
      "Ġexperi": 915,
      "Ġdet": 916,
      "cer": 917,
      "Ġsk": 918,
      "Ġlead": 919,
      "Ġrese": 920,
      "Ġfam": 921,
      "arm": 922,
      "dition": 923,
      "Ġprog": 924,
      "ands": 925,
      "Ġchild": 926,
      "Ġsee": 927,
      "Ġspe": 928,
      "uch": 929,
      "ied": 930,
      "Ġfun": 931,
      "aw": 932,
      "Ġwithin": 933,
      "ages": 934,
      "Ġsom": 935,
      "Ġgra": 936,
      "Ġboth": 937,
      "ited": 938,
      "Ġlife": 939,
      "Ġed": 940,
      "ants": 941,
      "Ġty": 942,
      "ering": 943,
      "olv": 944,
      "Ġloc": 945,
      "Ġmake": 946,
      "Ġwater": 947,
      "Ġent": 948,
      "Ġprocess": 949,
      "Ġpract": 950,
      "meric": 951,
      "Ġpat": 952,
      "arly": 953,
      "imes": 954,
      "Ġget": 955,
      "Ġeffect": 956,
      "Ġcult": 957,
      "Ġref": 958,
      "iron": 959,
      "ĠFor": 960,
      "tern": 961,
      "Ġperson": 962,
      "ĠWe": 963,
      "Ġback": 964,
      "ĠCon": 965,
      "con": 966,
      "Ġgener": 967,
      "ins": 968,
      "Ġway": 969,
      "cl": 970,
      "Ġdist": 971,
      "Ġ200": 972,
      "ety": 973,
      "ement": 974,
      "gg": 975,
      "Ġpartic": 976,
      "ining": 977,
      "iew": 978,
      "Ġinte": 979,
      "Ġfound": 980,
      "Ġincre": 981,
      "Ġyears": 982,
      "Ġfollow": 983,
      "Ġmight": 984,
      "ĠThey": 985,
      "ĠAd": 986,
      "Ġlong": 987,
      "Ġeng": 988,
      "Ġ4": 989,
      "ality": 990,
      "chool": 991,
      "Ġdesign": 992,
      ".\"": 993,
      "Ġcount": 994,
      "Ġrequ": 995,
      "Ġown": 996,
      "ividual": 997,
      "Ġdata": 998,
      "Ġgrow": 999,
      "cing": 1000,
      "Ġfind": 1001,
      "ĠRe": 1002,
      "ron": 1003,
      "Ġthen": 1004,
      "Ġread": 1005,
      "ather": 1006,
      "ĠAmeric": 1007,
      "Ġcent": 1008,
      "Ġaround": 1009,
      "Ġaut": 1010,
      "Ġsec": 1011,
      "ĠAl": 1012,
      "urn": 1013,
      "Ġafter": 1014,
      "Ġcar": 1015,
      "ym": 1016,
      "Ġappro": 1017,
      "Ġ5": 1018,
      "Ġext": 1019,
      "ĠBy": 1020,
      "Ġindividual": 1021,
      "ional": 1022,
      "ient": 1023,
      "Ġplay": 1024,
      "Ġchar": 1025,
      "ĠPro": 1026,
      "viron": 1027,
      "Ġcreat": 1028,
      "ĠCom": 1029,
      "Ġallow": 1030,
      "Ġpower": 1031,
      "Ġbefore": 1032,
      "Ġright": 1033,
      "Ġserv": 1034,
      "Ġlet": 1035,
      "Ġvis": 1036,
      "ences": 1037,
      "Ġbr": 1038,
      "Ġprovid": 1039,
      "Ġcare": 1040,
      "ually": 1041,
      "Ġresp": 1042,
      "Ġmain": 1043,
      "Ġcap": 1044,
      "Ġgl": 1045,
      "Ġcur": 1046,
      "Ġgrou": 1047,
      "por": 1048,
      "ories": 1049,
      "self": 1050,
      "Ġbecause": 1051,
      "over": 1052,
      "ĠThese": 1053,
      "Ġinformation": 1054,
      "ds": 1055,
      "Ġbeing": 1056,
      "ck": 1057,
      "Ġsci": 1058,
      "Ġfact": 1059,
      "ted": 1060,
      "Ġgu": 1061,
      "ax": 1062,
      "ix": 1063,
      "uss": 1064,
      "ork": 1065,
      "Ġend": 1066,
      "Ġmin": 1067,
      "Ġresult": 1068,
      "Ġlar": 1069,
      "ave": 1070,
      "iving": 1071,
      "Ġcontin": 1072,
      "ross": 1073,
      "tle": 1074,
      "Ġpot": 1075,
      "Ġadv": 1076,
      "Ġstart": 1077,
      "ars": 1078,
      "riend": 1079,
      "Ġdoes": 1080,
      "Ġchall": 1081,
      "itions": 1082,
      "Ġmem": 1083,
      "imate": 1084,
      "Ġcalled": 1085,
      "Ġpub": 1086,
      "ty": 1087,
      "Ġtoo": 1088,
      "Ġmade": 1089,
      "ute": 1090,
      "Ġbel": 1091,
      "Ġexample": 1092,
      "Ġsignific": 1093,
      "Ġprom": 1094,
      "Th": 1095,
      "Ġlit": 1096,
      "Ġconf": 1097,
      "Ġsupport": 1098,
      "ases": 1099,
      "Ġpop": 1100,
      "Ġsmall": 1101,
      "Ġthough": 1102,
      "ern": 1103,
      "Ġoften": 1104,
      "Ġche": 1105,
      "akes": 1106,
      "Ġdep": 1107,
      "rest": 1108,
      "ention": 1109,
      "Ġmat": 1110,
      "Ġsaid": 1111,
      "Ġorgan": 1112,
      "ared": 1113,
      "iel": 1114,
      "com": 1115,
      "ĠAn": 1116,
      "Ġgreat": 1117,
      "Ġmuch": 1118,
      "Ġdel": 1119,
      "ital": 1120,
      "any": 1121,
      "Ġday": 1122,
      "Ġmon": 1123,
      "Ġshow": 1124,
      "Ġdown": 1125,
      "ources": 1126,
      "Ġvarious": 1127,
      "Ġprot": 1128,
      "Ġagain": 1129,
      "Ġav": 1130,
      "Ġfood": 1131,
      "day": 1132,
      "ier": 1133,
      "Ġenviron": 1134,
      "ined": 1135,
      "Ġreal": 1136,
      "Ġequ": 1137,
      "ody": 1138,
      "ization": 1139,
      "Ġident": 1140,
      "Ġfeel": 1141,
      "Ġcor": 1142,
      "ivity": 1143,
      "Ġbuild": 1144,
      "âĢĶ": 1145,
      ",\"": 1146,
      "Ġimportant": 1147,
      "Ġsol": 1148,
      "Ġincluding": 1149,
      "read": 1150,
      "Ġconn": 1151,
      "Ġdef": 1152,
      "Ġstudy": 1153,
      "Ġcle": 1154,
      "Ġclass": 1155,
      "angu": 1156,
      "air": 1157,
      "ateg": 1158,
      "ique": 1159,
      "ergy": 1160,
      "ex": 1161,
      "ider": 1162,
      "oring": 1163,
      "Ġ201": 1164,
      "iness": 1165,
      "the": 1166,
      "und": 1167,
      "Ġcreate": 1168,
      "ivers": 1169,
      "Ġplan": 1170,
      "ets": 1171,
      "inal": 1172,
      "Ġstudents": 1173,
      "Ġhuman": 1174,
      "ven": 1175,
      "Ġredu": 1176,
      "Ġbeh": 1177,
      "Ġtake": 1178,
      "ĠBut": 1179,
      "Ġsocial": 1180,
      "Ġprof": 1181,
      "Ġop": 1182,
      "Ġschool": 1183,
      "ĠEx": 1184,
      "Ġlevel": 1185,
      "itive": 1186,
      "ale": 1187,
      "Ġimpro": 1188,
      "ĠSo": 1189,
      "ify": 1190,
      "rodu": 1191,
      "Ġens": 1192,
      "Ġless": 1193,
      "cent": 1194,
      "Ġposs": 1195,
      "ability": 1196,
      "Ġquest": 1197,
      "Ġdid": 1198,
      "Ġpar": 1199,
      "Ġ=": 1200,
      "ency": 1201,
      "ves": 1202,
      "Ġhim": 1203,
      "ĠAr": 1204,
      "Ġproble": 1205,
      "``": 1206,
      "raph": 1207,
      "to": 1208,
      "up": 1209,
      "Ġdem": 1210,
      "Ġfriend": 1211,
      "ccess": 1212,
      "line": 1213,
      "par": 1214,
      "Ġ18": 1215,
      "Ġnow": 1216,
      "ling": 1217,
      "Ġess": 1218,
      "less": 1219,
      "ples": 1220,
      "ĠWhat": 1221,
      "Ġest": 1222,
      "Ġaw": 1223,
      "##": 1224,
      "Ġanal": 1225,
      "rol": 1226,
      "Ġresearch": 1227,
      "Ġser": 1228,
      "Ġaff": 1229,
      "gether": 1230,
      "Ġtogether": 1231,
      "ination": 1232,
      "ving": 1233,
      "ah": 1234,
      "Ġgood": 1235,
      "ething": 1236,
      "io": 1237,
      "iven": 1238,
      "Ġvery": 1239,
      "Ġconst": 1240,
      "Ġ6": 1241,
      "be": 1242,
      "aterial": 1243,
      "ince": 1244,
      "Ġiss": 1245,
      "Ġcharact": 1246,
      "Ġtest": 1247,
      "ocus": 1248,
      "Ġlangu": 1249,
      "ired": 1250,
      "Ġfac": 1251,
      "ead": 1252,
      "ĠĠĠ": 1253,
      "Ġsignificant": 1254,
      "orts": 1255,
      "els": 1256,
      "Ġlearning": 1257,
      "Ġeduc": 1258,
      "Ġpass": 1259,
      "Ġmark": 1260,
      ".,": 1261,
      "Ġbetter": 1262,
      "Ġsomething": 1263,
      "ĠIf": 1264,
      "Ġmust": 1265,
      "land": 1266,
      "omen": 1267,
      "ense": 1268,
      "Ġexplore": 1269,
      "Ġgover": 1270,
      "Ġsame": 1271,
      "Ġpotential": 1272,
      "ished": 1273,
      "oun": 1274,
      "Ġenvironment": 1275,
      "ĠInd": 1276,
      "Ġtreat": 1277,
      "Ġris": 1278,
      "Ġothers": 1279,
      "irect": 1280,
      "bers": 1281,
      "hers": 1282,
      "ances": 1283,
      "ethod": 1284,
      "Ġide": 1285,
      "ember": 1286,
      "ently": 1287,
      "Ġret": 1288,
      "Ġchalleng": 1289,
      "Ġamong": 1290,
      "Ġwant": 1291,
      "ĠAnd": 1292,
      "Ġcour": 1293,
      "ft": 1294,
      "Ġanother": 1295,
      "Ġmus": 1296,
      "ock": 1297,
      "Ġprovide": 1298,
      "----------------": 1299,
      "ills": 1300,
      "Ġinclude": 1301,
      "Ġproduct": 1302,
      "Ġcomplex": 1303,
      "ĠSp": 1304,
      "Ġben": 1305,
      "ĠNew": 1306,
      "Ġbus": 1307,
      "ral": 1308,
      "Ġchildren": 1309,
      "lu": 1310,
      "Ġele": 1311,
      "Ġthree": 1312,
      "Ġopt": 1313,
      "ains": 1314,
      "elf": 1315,
      "Ġwrit": 1316,
      "oss": 1317,
      "ights": 1318,
      "Ġtyp": 1319,
      "Ġhistory": 1320,
      "Ġocc": 1321,
      "Ġunderstanding": 1322,
      "Ġperform": 1323,
      "Ġbased": 1324,
      "ries": 1325,
      "Ġinvolv": 1326,
      "Ġenc": 1327,
      "Ġca": 1328,
      "ner": 1329,
      "Ġenergy": 1330,
      "Ġinterest": 1331,
      "usion": 1332,
      "Ġchang": 1333,
      "Ġ'": 1334,
      "agine": 1335,
      "Ġfunction": 1336,
      "Ġbelie": 1337,
      "Ġmaterial": 1338,
      "Ġhand": 1339,
      "000": 1340,
      "Ġgovern": 1341,
      "ash": 1342,
      "izing": 1343,
      "abor": 1344,
      "conom": 1345,
      "de": 1346,
      "Ġrepres": 1347,
      "ulation": 1348,
      "Ġsoci": 1349,
      "Ġfocus": 1350,
      "Ġknown": 1351,
      "bs": 1352,
      "Ġbecome": 1353,
      "oh": 1354,
      "Ġelect": 1355,
      "Ġbo": 1356,
      "Ġconnect": 1357,
      "ived": 1358,
      "soci": 1359,
      "apter": 1360,
      "Ġchange": 1361,
      "reen": 1362,
      "ĠHowever": 1363,
      "Ġkeep": 1364,
      "Ġcrit": 1365,
      "Ġwithout": 1366,
      "ision": 1367,
      "ological": 1368,
      "Ġhapp": 1369,
      "ways": 1370,
      "Ġpur": 1371,
      "Ġsever": 1372,
      "Ġmet": 1373,
      "urther": 1374,
      "Ġmethod": 1375,
      "Ġnumber": 1376,
      "ental": 1377,
      "Ġimpact": 1378,
      "az": 1379,
      "Ġve": 1380,
      "As": 1381,
      "Ġmanag": 1382,
      "Ġtoward": 1383,
      "ury": 1384,
      "Ġmean": 1385,
      "ogn": 1386,
      "Ġbre": 1387,
      "ients": 1388,
      "put": 1389,
      "Ġdevelopment": 1390,
      "ger": 1391,
      "Ġstate": 1392,
      "Ġproject": 1393,
      "Ġ10": 1394,
      "12": 1395,
      "19": 1396,
      "Ġcommon": 1397,
      "ograph": 1398,
      "Ġphys": 1399,
      "ior": 1400,
      "Ġmaking": 1401,
      "Ġsit": 1402,
      "Ġpublic": 1403,
      "Ġbra": 1404,
      "ration": 1405,
      "Ġsuccess": 1406,
      "Ġunt": 1407,
      "Ġfin": 1408,
      "verse": 1409,
      "Ġplace": 1410,
      "Ġfamily": 1411,
      "ertain": 1412,
      "ication": 1413,
      "ouse": 1414,
      "Ġleg": 1415,
      "rat": 1416,
      "der": 1417,
      "Ġdon": 1418,
      "Ġ12": 1419,
      "Ġmove": 1420,
      "Ġseveral": 1421,
      "Ġdue": 1422,
      "Ġimm": 1423,
      "ran": 1424,
      "lish": 1425,
      "Ġaccess": 1426,
      "Ġcontrib": 1427,
      "Ġthings": 1428,
      "ording": 1429,
      "Ġ`": 1430,
      "Ġbody": 1431,
      "Ġstill": 1432,
      "ĠRes": 1433,
      "Ġstand": 1434,
      "Ġdiscuss": 1435,
      "gin": 1436,
      "Ġtre": 1437,
      "ĠIs": 1438,
      "ull": 1439,
      "ĠDe": 1440,
      "Ġacross": 1441,
      "Wh": 1442,
      "Ġ**": 1443,
      "ĠIm": 1444,
      "Ġlight": 1445,
      "ĠSe": 1446,
      "atural": 1447,
      "Ġmult": 1448,
      "Ġhome": 1449,
      "Ġunique": 1450,
      "uture": 1451,
      "Ġopen": 1452,
      "ote": 1453,
      "Ġstep": 1454,
      "iod": 1455,
      "pr": 1456,
      "ape": 1457,
      "rence": 1458,
      "ret": 1459,
      "Ġlarge": 1460,
      "ĠWhen": 1461,
      "Ġdr": 1462,
      "Ġagainst": 1463,
      "Ġessential": 1464,
      "Ġrelations": 1465,
      "Ġlook": 1466,
      "ield": 1467,
      "ols": 1468,
      "Ġpresent": 1469,
      "Ġgroup": 1470,
      "ploy": 1471,
      "iversity": 1472,
      "oura": 1473,
      "Ġspecial": 1474,
      "ditions": 1475,
      "port": 1476,
      "Ġeas": 1477,
      "Ġanim": 1478,
      "py": 1479,
      "ĠAmerican": 1480,
      "Ġlist": 1481,
      "oms": 1482,
      "Ġspecific": 1483,
      "Ġalong": 1484,
      "orn": 1485,
      "ved": 1486,
      "Ġbest": 1487,
      "Ġlanguage": 1488,
      "Ġcomb": 1489,
      "ĠOn": 1490,
      "Ġdra": 1491,
      "Ġtop": 1492,
      "Ġel": 1493,
      "Ġcell": 1494,
      "Ġoper": 1495,
      "ered": 1496,
      "Ġbusiness": 1497,
      "Ġmar": 1498,
      "ert": 1499,
      "Ġtem": 1500,
      "ason": 1501,
      "Ġeconom": 1502,
      "ians": 1503,
      "Ġsl": 1504,
      "Ġsym": 1505,
      "ilities": 1506,
      "Ġcr": 1507,
      "Ġbenef": 1508,
      "Ġcomput": 1509,
      "ĠTo": 1510,
      "Ġrole": 1511,
      "Ġstrateg": 1512,
      "aj": 1513,
      "ĠSh": 1514,
      "Ġthink": 1515,
      "Ġprogram": 1516,
      "Ġ7": 1517,
      "view": 1518,
      "Ġdise": 1519,
      "Ġfore": 1520,
      "ids": 1521,
      "arth": 1522,
      "Ġsystems": 1523,
      "amp": 1524,
      "Ġmeas": 1525,
      "Ġattention": 1526,
      "Ġuntil": 1527,
      "Ġparticular": 1528,
      "Ġlocal": 1529,
      "Ġlaw": 1530,
      "Ġdev": 1531,
      "Ġair": 1532,
      "ively": 1533,
      "ards": 1534,
      "ots": 1535,
      "Ġconsider": 1536,
      "Ġwhy": 1537,
      "ium": 1538,
      "Ġvari": 1539,
      "Ġhy": 1540,
      "ĠEn": 1541,
      "ĠThat": 1542,
      "iting": 1543,
      "Ġstruct": 1544,
      "aring": 1545,
      "Ġhead": 1546,
      "Ġtal": 1547,
      "Ġrest": 1548,
      "Ġauth": 1549,
      "ĠPl": 1550,
      "ending": 1551,
      "Ġter": 1552,
      "Ġdirect": 1553,
      "Ġfew": 1554,
      "Ġproper": 1555,
      "Ġtext": 1556,
      "arent": 1557,
      "ledge": 1558,
      "||": 1559,
      "ĠBe": 1560,
      "here": 1561,
      "Ġ&": 1562,
      "agn": 1563,
      "Ġ$": 1564,
      "Ġrespons": 1565,
      "uro": 1566,
      "Ġindividuals": 1567,
      "Ġstory": 1568,
      "utions": 1569,
      "Ġearly": 1570,
      "Ġbro": 1571,
      "Ġcontrol": 1572,
      "Ġmeans": 1573,
      "hold": 1574,
      "pos": 1575,
      "ĠEng": 1576,
      "Ġdesc": 1577,
      "yn": 1578,
      "Ġbas": 1579,
      "Ġcaus": 1580,
      "Ġfuture": 1581,
      "Ġcommunity": 1582,
      "Ġexperience": 1583,
      "ats": 1584,
      "Ġinflu": 1585,
      "Ġscient": 1586,
      "Ġ8": 1587,
      "Ġfollowing": 1588,
      "br": 1589,
      "Ġinvest": 1590,
      "Ġself": 1591,
      "Ġrele": 1592,
      "Ġobject": 1593,
      "app": 1594,
      "ney": 1595,
      "Ġcome": 1596,
      "Ġever": 1597,
      "Ġupon": 1598,
      "Ġtechnology": 1599,
      "Ġcal": 1600,
      "Ġseem": 1601,
      "pportun": 1602,
      "ĠThere": 1603,
      "Ġjour": 1604,
      "istic": 1605,
      "Ġes": 1606,
      "Ġtradition": 1607,
      "ton": 1608,
      "Ġactiv": 1609,
      "Ġconcept": 1610,
      "outh": 1611,
      "Ġmil": 1612,
      "olution": 1613,
      "iques": 1614,
      "Ġlim": 1615,
      "Ġrelationship": 1616,
      "ames": 1617,
      "asing": 1618,
      "rist": 1619,
      "ilar": 1620,
      "Ġcust": 1621,
      "Ġmaintain": 1622,
      "Ġcertain": 1623,
      "Ġrepresent": 1624,
      "'re": 1625,
      "This": 1626,
      "Ġpain": 1627,
      "Ġapplic": 1628,
      "Ġbi": 1629,
      "Ġhistor": 1630,
      "Ġways": 1631,
      "Ġold": 1632,
      "ĠWith": 1633,
      "aging": 1634,
      "aut": 1635,
      "ides": 1636,
      "ode": 1637,
      "Ġmill": 1638,
      "arc": 1639,
      "man": 1640,
      "Ġresources": 1641,
      "Ġsupp": 1642,
      "selves": 1643,
      "Ġtry": 1644,
      "Ġ199": 1645,
      "Ġstrong": 1646,
      "ource": 1647,
      "ĠAt": 1648,
      "etimes": 1649,
      "Ġnon": 1650,
      "ray": 1651,
      "Ġopportun": 1652,
      "Ġcost": 1653,
      "Ġemb": 1654,
      "Ġchallenges": 1655,
      "Ġhere": 1656,
      "ĠCan": 1657,
      "Ġavail": 1658,
      "Ġcharacter": 1659,
      "ili": 1660,
      "eral": 1661,
      "asc": 1662,
      "ĠCl": 1663,
      "ression": 1664,
      "Ġstat": 1665,
      "idence": 1666,
      "ooks": 1667,
      "me": 1668,
      "Ġtoday": 1669,
      "ĠQ": 1670,
      "apt": 1671,
      "Ġorig": 1672,
      "Ġaffect": 1673,
      "Ġpersonal": 1674,
      "Ġteam": 1675,
      "clusion": 1676,
      "Ġfriends": 1677,
      "place": 1678,
      "rop": 1679,
      "Ġalways": 1680,
      "Ġarea": 1681,
      "Ġassoci": 1682,
      "ified": 1683,
      "Ġpolit": 1684,
      "Ġreport": 1685,
      "atures": 1686,
      "ĠOne": 1687,
      "Ġprofess": 1688,
      "Ġlast": 1689,
      "aces": 1690,
      "Ġareas": 1691,
      "Ġpast": 1692,
      "Ġtowards": 1693,
      "by": 1694,
      "ĠCol": 1695,
      "ately": 1696,
      "orth": 1697,
      "To": 1698,
      "Ġconcer": 1699,
      "ission": 1700,
      "Ġindust": 1701,
      "Ġ9": 1702,
      "Ġland": 1703,
      "Ġthroughout": 1704,
      "Ġkey": 1705,
      "Ġnecess": 1706,
      "irc": 1707,
      "idd": 1708,
      "Ġyoung": 1709,
      "Ġtri": 1710,
      "Ġnatural": 1711,
      "Ġwomen": 1712,
      "Ġfre": 1713,
      "Ġskills": 1714,
      "Ġaddress": 1715,
      "ript": 1716,
      "Ġissues": 1717,
      "ables": 1718,
      "Ġbehav": 1719,
      "Ġmodel": 1720,
      ".âĢĿ": 1721,
      "oid": 1722,
      "Ġill": 1723,
      "ope": 1724,
      "Ġ[": 1725,
      "ĠOr": 1726,
      "thing": 1727,
      "Ġant": 1728,
      "Ġlay": 1729,
      "Ġtimes": 1730,
      "Ġprotect": 1731,
      "Ġheart": 1732,
      "ug": 1733,
      "Ġhard": 1734,
      "ĠTe": 1735,
      "Ġsince": 1736,
      "PT": 1737,
      "work": 1738,
      "ibr": 1739,
      "Ġview": 1740,
      "Ġgr": 1741,
      "ery": 1742,
      "ĠPh": 1743,
      "Ġdiff": 1744,
      "Ġperiod": 1745,
      "Ġimprove": 1746,
      "Ġgovernment": 1747,
      "Ġrun": 1748,
      "Ġpress": 1749,
      "ĠShe": 1750,
      "ained": 1751,
      "ibility": 1752,
      "Ġknowledge": 1753,
      "Ġpolic": 1754,
      "ream": 1755,
      "Ġarch": 1756,
      "Ġgrowth": 1757,
      "Ġprin": 1758,
      "10": 1759,
      "Ġmov": 1760,
      "omm": 1761,
      "ended": 1762,
      "Ġ0": 1763,
      "Ġworks": 1764,
      "Ġobs": 1765,
      "mat": 1766,
      "ĠComm": 1767,
      "Ġexist": 1768,
      "ooking": 1769,
      "ued": 1770,
      "lished": 1771,
      "ggest": 1772,
      "Ġintern": 1773,
      "ĠUnited": 1774,
      "Ġmind": 1775,
      "utes": 1776,
      "erc": 1777,
      "Ġmarket": 1778,
      "oph": 1779,
      "Ġmodern": 1780,
      "osp": 1781,
      "Ġet": 1782,
      "Ġsay": 1783,
      "Ġglob": 1784,
      "Ġdeterm": 1785,
      "Ġfil": 1786,
      "ges": 1787,
      "Ġsimilar": 1788,
      "use": 1789,
      "amet": 1790,
      "Ġcourse": 1791,
      "fully": 1792,
      "lement": 1793,
      "aps": 1794,
      "oft": 1795,
      "20": 1796,
      "orld": 1797,
      "Ġtru": 1798,
      "Ġlow": 1799,
      "Ġrisk": 1800,
      "Ġpossible": 1801,
      "ĠUniversity": 1802,
      "Ġcurrent": 1803,
      "Ġexperiences": 1804,
      "Ġemploy": 1805,
      "Ġdeep": 1806,
      "Ġprevent": 1807,
      "Ġemot": 1808,
      "ints": 1809,
      "ones": 1810,
      "Ġpost": 1811,
      "ked": 1812,
      "Ġaddition": 1813,
      "chie": 1814,
      "Ġsecond": 1815,
      "Ġaspect": 1816,
      "tep": 1817,
      "Ġinit": 1818,
      "Ġrece": 1819,
      "Ġoccur": 1820,
      "Ġpoint": 1821,
      "Ġspace": 1822,
      "Ġsound": 1823,
      "Ġsuggest": 1824,
      "illed": 1825,
      "Now": 1826,
      "Ġnext": 1827,
      "Ġavailable": 1828,
      "Ġsomeone": 1829,
      "side": 1830,
      "ole": 1831,
      "Ġcoll": 1832,
      "sy": 1833,
      "Ġtechniques": 1834,
      "Ġlevels": 1835,
      "Ġtype": 1836,
      "Ġcase": 1837,
      "Ġestab": 1838,
      "__": 1839,
      "Ġer": 1840,
      "ĠSome": 1841,
      "Ġcustom": 1842,
      "ajor": 1843,
      "...": 1844,
      "Ġworking": 1845,
      "Ġeffic": 1846,
      "iction": 1847,
      "ĠChrist": 1848,
      "ysis": 1849,
      "ĠLe": 1850,
      "Ġturn": 1851,
      "Ġensure": 1852,
      "Ġcollect": 1853,
      "Ġsw": 1854,
      "Ġeducation": 1855,
      "ires": 1856,
      "come": 1857,
      "ĠInst": 1858,
      "Ġey": 1859,
      "Ġhig": 1860,
      "Ġfar": 1861,
      "face": 1862,
      "Ġrecogn": 1863,
      "ĊĠĠĠ": 1864,
      "acy": 1865,
      "ths": 1866,
      "Ġlittle": 1867,
      "Ġsal": 1868,
      "Ġname": 1869,
      "ising": 1870,
      "for": 1871,
      "Ġhaving": 1872,
      "pecial": 1873,
      "Ġnet": 1874,
      "!<|": 1875,
      "ĠEm": 1876,
      "Ġspecies": 1877,
      "ik": 1878,
      "Ġdig": 1879,
      "atch": 1880,
      "omes": 1881,
      "Ġkind": 1882,
      "rences": 1883,
      "Ġconditions": 1884,
      "Ġblood": 1885,
      "Ġfurther": 1886,
      "ĠStates": 1887,
      "Ġthought": 1888,
      "Ġcommunities": 1889,
      "Ġinn": 1890,
      "Ġrelig": 1891,
      "lection": 1892,
      "Ġquestions": 1893,
      "Ġliter": 1894,
      "cient": 1895,
      "Ġstories": 1896,
      "Ġbook": 1897,
      "Ġfree": 1898,
      "ters": 1899,
      "Ġcountry": 1900,
      "Ġbegin": 1901,
      "II": 1902,
      "Ġgiven": 1903,
      "ank": 1904,
      "Ġwords": 1905,
      "Ġpie": 1906,
      "ush": 1907,
      "Ġeveryone": 1908,
      "Ġline": 1909,
      "Ġcultural": 1910,
      "88": 1911,
      "though": 1912,
      "icult": 1913,
      "Ġachie": 1914,
      "ina": 1915,
      "ruction": 1916,
      "urope": 1917,
      "Ġvol": 1918,
      "ek": 1919,
      "Ġpercent": 1920,
      "Ġsing": 1921,
      "Ġneeds": 1922,
      "Ġdisease": 1923,
      "Ġsens": 1924,
      "Ġchanges": 1925,
      "ĠAf": 1926,
      "Ġnature": 1927,
      "anced": 1928,
      "Ġmot": 1929,
      "Ġprim": 1930,
      "ring": 1931,
      "osed": 1932,
      "Ġaway": 1933,
      "GM": 1934,
      "reci": 1935,
      "onst": 1936,
      "Ġvir": 1937,
      "inating": 1938,
      "Ġconsum": 1939,
      "ored": 1940,
      "Ġcirc": 1941,
      "lying": 1942,
      "Ġsum": 1943,
      "ised": 1944,
      "isc": 1945,
      "ators": 1946,
      "orpor": 1947,
      "Ġbir": 1948,
      "Ġactivities": 1949,
      "Ġmen": 1950,
      "Ġshort": 1951,
      "Ġfour": 1952,
      "aper": 1953,
      "plic": 1954,
      "Ġrespect": 1955,
      "Ġvalue": 1956,
      "Ġshare": 1957,
      "avor": 1958,
      "arl": 1959,
      "iver": 1960,
      "Ġpractices": 1961,
      "Ġmusic": 1962,
      "Ġsays": 1963,
      "Ġlove": 1964,
      "Ġnear": 1965,
      "Ġtypes": 1966,
      "Ġparticip": 1967,
      "Ġnever": 1968,
      "Ġmakes": 1969,
      "gr": 1970,
      "Ġtraditional": 1971,
      "Ġhelps": 1972,
      "ane": 1973,
      "let": 1974,
      "Ġonline": 1975,
      "Ġinteract": 1976,
      "Ġwar": 1977,
      "Ġwhether": 1978,
      "nderstand": 1979,
      "inary": 1980,
      "ably": 1981,
      "inking": 1982,
      "Ġencoura": 1983,
      "Ġfund": 1984,
      "Ġregard": 1985,
      "Ġflow": 1986,
      "```": 1987,
      "Ġproblems": 1988,
      "Ġbig": 1989,
      "Ġtools": 1990,
      "Ġcru": 1991,
      "Ġable": 1992,
      "Ġcontext": 1993,
      "ĠEurope": 1994,
      "Ġmajor": 1995,
      "Ġcreating": 1996,
      "Ġ<": 1997,
      "oney": 1998,
      "fort": 1999,
      "sequ": 2000,
      "Ġgroups": 2001,
      "PTGM": 2002,
      "Ġground": 2003,
      "ips": 2004,
      "gen": 2005,
      "joy": 2006,
      "porary": 2007,
      "ware": 2008,
      "itect": 2009,
      "Ġphysical": 2010,
      "Ġcreated": 2011,
      "Ġpred": 2012,
      "aster": 2013,
      ",âĢĿ": 2014,
      "Ġauthor": 2015,
      "Ġevents": 2016,
      "ulations": 2017,
      "ken": 2018,
      "ffic": 2019,
      "duct": 2020,
      "elling": 2021,
      "aries": 2022,
      "val": 2023,
      "Ġliving": 2024,
      "Ġcause": 2025,
      "Ġage": 2026,
      "Ġproblem": 2027,
      "Ġrequire": 2028,
      "ĠThrough": 2029,
      "Ġallows": 2030,
      "ules": 2031,
      "50": 2032,
      "ĠGod": 2033,
      "Ġrad": 2034,
      "Ġbuilding": 2035,
      "Ġfactors": 2036,
      "Ġappear": 2037,
      "ĠZ": 2038,
      "Ġmeet": 2039,
      "Ġdetail": 2040,
      "ox": 2041,
      "new": 2042,
      "Ġce": 2043,
      "Ġenough": 2044,
      "rams": 2045,
      "Ġput": 2046,
      "Ġfost": 2047,
      "Ġsure": 2048,
      "Ġenh": 2049,
      "Ġgive": 2050,
      "ator": 2051,
      "Ġappreci": 2052,
      "aves": 2053,
      "ĊĠĠĠĠ": 2054,
      "ann": 2055,
      "Ġprinci": 2056,
      "It": 2057,
      "Ġlives": 2058,
      "Ġmaterials": 2059,
      "Ġexploring": 2060,
      "oot": 2061,
      "Ġorder": 2062,
      "aling": 2063,
      "Ġpopular": 2064,
      "Ġbecame": 2065,
      "Ġlater": 2066,
      "etic": 2067,
      "Ġscience": 2068,
      "sych": 2069,
      "Section": 2070,
      "Ġclose": 2071,
      "Ġphot": 2072,
      "ĠCent": 2073,
      "Ġhold": 2074,
      "ened": 2075,
      "ument": 2076,
      "ĠMed": 2077,
      "Ġgoing": 2078,
      "ither": 2079,
      "Ġplant": 2080,
      "Ġvalu": 2081,
      "rite": 2082,
      "Ġmembers": 2083,
      "Ġevent": 2084,
      "ured": 2085,
      "imately": 2086,
      "Ġresearc": 2087,
      "Ġassociated": 2088,
      "'ll": 2089,
      "Ġaccount": 2090,
      "Ġemerg": 2091,
      "ĠNational": 2092,
      "pite": 2093,
      "Ġresults": 2094,
      "ging": 2095,
      "Ġsitu": 2096,
      "ours": 2097,
      "ĠSc": 2098,
      "Ġpractice": 2099,
      "Ġinsp": 2100,
      "ening": 2101,
      "Ġcomes": 2102,
      "Ġhistorical": 2103,
      "Ġtreatment": 2104,
      "lt": 2105,
      "fer": 2106,
      "icle": 2107,
      "Ġexc": 2108,
      "Ġbeaut": 2109,
      "Ġsometimes": 2110,
      "Ġcritical": 2111,
      "Ġaccording": 2112,
      "ches": 2113,
      "aching": 2114,
      "ipp": 2115,
      "roduction": 2116,
      "Ġemp": 2117,
      "ĠLet": 2118,
      "ĠAPTGM": 2119,
      "ont": 2120,
      "Ġinstead": 2121,
      "Ġmanagement": 2122,
      "Ġleft": 2123,
      "Ġglobal": 2124,
      "aches": 2125,
      "overed": 2126,
      "Ġtemper": 2127,
      "Ġoffer": 2128,
      "min": 2129,
      "SM": 2130,
      "Step": 2131,
      "Ġthemselves": 2132,
      "Ġcity": 2133,
      "Ġvaluable": 2134,
      "ĠJoh": 2135,
      "Ġdifficult": 2136,
      "light": 2137,
      "ises": 2138,
      "Ġservices": 2139,
      "Ġcho": 2140,
      "Ġdays": 2141,
      "Ġz": 2142,
      "Ġinstance": 2143,
      "Ġparent": 2144,
      "Ġelements": 2145,
      "Ġexpect": 2146,
      "Ġcountries": 2147,
      "oose": 2148,
      "augh": 2149,
      "ww": 2150,
      "Ġinnov": 2151,
      "Ġsimple": 2152,
      "Ġsust": 2153,
      "ĠAll": 2154,
      "Ġarchitect": 2155,
      "ged": 2156,
      "ĠâĢĶ": 2157,
      "reng": 2158,
      "Ġrather": 2159,
      "une": 2160,
      "Ġshap": 2161,
      "Ġjo": 2162,
      "Ġpositive": 2163,
      "Ġrecord": 2164,
      "Ġneg": 2165,
      "ĠAm": 2166,
      "pro": 2167,
      "We": 2168,
      "Ġunit": 2169,
      "go": 2170,
      "Ġenjoy": 2171,
      "Ġside": 2172,
      "Ġstrategies": 2173,
      "14": 2174,
      "oad": 2175,
      "Ġamount": 2176,
      "Ġquestion": 2177,
      "Ġmedia": 2178,
      "Ġjourney": 2179,
      "Ġsafe": 2180,
      "sw": 2181,
      "Ġaud": 2182,
      "An": 2183,
      "Ġcompet": 2184,
      "Ġculture": 2185,
      "mit": 2186,
      "ĠDes": 2187,
      "atic": 2188,
      "Ġmillion": 2189,
      "wh": 2190,
      "Ġsociety": 2191,
      "ĠAfric": 2192,
      "lex": 2193,
      "not": 2194,
      "Ġconsist": 2195,
      "Ġcentury": 2196,
      "ee": 2197,
      "):": 2198,
      "Ġmethods": 2199,
      "Ġcapt": 2200,
      "Ġopportunities": 2201,
      "pecially": 2202,
      "emporary": 2203,
      "Ġsurround": 2204,
      "arget": 2205,
      "Ġfull": 2206,
      "Ġyet": 2207,
      "Ġprovides": 2208,
      "Ġenvironmental": 2209,
      "Ġsoft": 2210,
      "Ġuses": 2211,
      "Ġsize": 2212,
      "Ġquality": 2213,
      "Ġfield": 2214,
      "Ġsuper": 2215,
      "Ġimplement": 2216,
      "nderstanding": 2217,
      "ĠBl": 2218,
      "ĠÐ": 2219,
      "Ġremember": 2220,
      "cle": 2221,
      "avig": 2222,
      "Ġfasc": 2223,
      "Ġcells": 2224,
      "Ġwind": 2225,
      "Ġwond": 2226,
      "oon": 2227,
      "Ġvalues": 2228,
      "ditionally": 2229,
      "Ġanimals": 2230,
      "tt": 2231,
      "ites": 2232,
      "Ġbal": 2233,
      "Ġnecessary": 2234,
      "Ġarg": 2235,
      "Ġarr": 2236,
      "Ġcrucial": 2237,
      "ĠWhile": 2238,
      "Ġmeaning": 2239,
      "Ġmom": 2240,
      "Ġoil": 2241,
      "Ġtravel": 2242,
      "aste": 2243,
      "One": 2244,
      "ender": 2245,
      "Ġhigher": 2246,
      "Ġincreasing": 2247,
      "Ġfig": 2248,
      "Ġtraining": 2249,
      "Ġquick": 2250,
      "ification": 2251,
      "Ġbegan": 2252,
      "vious": 2253,
      "Ġincrease": 2254,
      "terns": 2255,
      "Ġcontain": 2256,
      "Ġcommunication": 2257,
      "Ġsteps": 2258,
      "Ġstudies": 2259,
      "Ġreflect": 2260,
      "Al": 2261,
      "Ġ15": 2262,
      "erous": 2263,
      "aim": 2264,
      "Ġclear": 2265,
      "ze": 2266,
      "ilt": 2267,
      "Ġproducts": 2268,
      "Ġguid": 2269,
      "Ġdescrib": 2270,
      "Ch": 2271,
      "urb": 2272,
      "Ġsty": 2273,
      "Ġneeded": 2274,
      "Ġlearned": 2275,
      "Ġmultip": 2276,
      "Ġbenefits": 2277,
      "ĠWorld": 2278,
      "Ġengine": 2279,
      "Ġpolitical": 2280,
      "Ġcompon": 2281,
      "ĠMay": 2282,
      "Ġ17": 2283,
      "Ġnorm": 2284,
      "Ġaim": 2285,
      "ems": 2286,
      "Ġanaly": 2287,
      "Ġbreak": 2288,
      "Ġstreng": 2289,
      "atory": 2290,
      "ĠApp": 2291,
      "edi": 2292,
      "yond": 2293,
      "Ġnar": 2294,
      "Ġcomplete": 2295,
      "ĠWar": 2296,
      "ĠNe": 2297,
      "Ġresearchers": 2298,
      "Ġonce": 2299,
      "oman": 2300,
      "chan": 2301,
      "Ġdiverse": 2302,
      "Ġyourself": 2303,
      "thon": 2304,
      "Ġmess": 2305,
      "my": 2306,
      "sp": 2307,
      "Ġobserv": 2308,
      "Ġlive": 2309,
      "Ġrange": 2310,
      "Ġeffects": 2311,
      "roll": 2312,
      "ivil": 2313,
      "ption": 2314,
      "urity": 2315,
      "ival": 2316,
      "Ġcontinue": 2317,
      "ĠGen": 2318,
      "Ġplants": 2319,
      "elt": 2320,
      "Ġhowever": 2321,
      "izations": 2322,
      "Ġanalysis": 2323,
      "Ġsense": 2324,
      "Ġdam": 2325,
      "ĠStud": 2326,
      "Ġincorpor": 2327,
      "Ġespecially": 2328,
      "Ġlands": 2329,
      "Ġbehavior": 2330,
      "Ġnut": 2331,
      "Ġrights": 2332,
      "Im": 2333,
      "Ġleading": 2334,
      "Ġ16": 2335,
      "Ġoverall": 2336,
      "Ġreduce": 2337,
      ":**": 2338,
      "aken": 2339,
      "Ġcame": 2340,
      "af": 2341,
      "Ġpromot": 2342,
      "Ġste": 2343,
      "fect": 2344,
      "Ġabove": 2345,
      "Ġusually": 2346,
      "Ġcra": 2347,
      "Ġdoc": 2348,
      "fact": 2349,
      "Ġharm": 2350,
      "Ġdoct": 2351,
      "earch": 2352,
      "Ġvers": 2353,
      "Ġselect": 2354,
      "Ġsat": 2355,
      "Ġ|": 2356,
      "erve": 2357,
      "Ġdesigned": 2358,
      "enn": 2359,
      "Ġidentify": 2360,
      "ĠCons": 2361,
      "Ġteac": 2362,
      "Ġeffective": 2363,
      "Ġtaking": 2364,
      "alf": 2365,
      "ma": 2366,
      "Ġ.": 2367,
      "Ġfeatures": 2368,
      "ĠTr": 2369,
      "ĠPer": 2370,
      "ler": 2371,
      "Ġefforts": 2372,
      "atives": 2373,
      "Ġexerc": 2374,
      "Ġperformance": 2375,
      "Ġsustain": 2376,
      "Ġcut": 2377,
      "Ġcolor": 2378,
      "ference": 2379,
      "ley": 2380,
      "Ġtarget": 2381,
      "ming": 2382,
      "Ġbring": 2383,
      "Ġsubst": 2384,
      "like": 2385,
      "Ġdom": 2386,
      "Ġpatterns": 2387,
      "ĠSSM": 2388,
      "Ġreturn": 2389,
      "acks": 2390,
      "ios": 2391,
      "Ġremain": 2392,
      "âĢĵ": 2393,
      "Ġincreased": 2394,
      "Ġloss": 2395,
      "ison": 2396,
      "irit": 2397,
      "ĠMar": 2398,
      "Ġdemonst": 2399,
      "Ġcy": 2400,
      "ĠCont": 2401,
      "What": 2402,
      "amed": 2403,
      "Ġdraw": 2404,
      "ners": 2405,
      "Ġansw": 2406,
      "icial": 2407,
      "ĠMan": 2408,
      "But": 2409,
      "Ġge": 2410,
      "Ġmach": 2411,
      "Ġdeath": 2412,
      "Ġchem": 2413,
      "Ġfrequ": 2414,
      "Ġeconomic": 2415,
      "ends": 2416,
      "Ġbat": 2417,
      "Ġmedical": 2418,
      "Ġsingle": 2419,
      "Ġcollabor": 2420,
      "enc": 2421,
      "Ġpay": 2422,
      "epend": 2423,
      "isions": 2424,
      "ott": 2425,
      "Ġstru": 2426,
      "Ġexpress": 2427,
      "Ġmental": 2428,
      "Ġproduction": 2429,
      "inally": 2430,
      "Ġcancer": 2431,
      "ctions": 2432,
      "Ġsmo": 2433,
      "Ġthera": 2434,
      "âĢľ": 2435,
      "ĠAfter": 2436,
      "Ġevidence": 2437,
      "Ġleast": 2438,
      "rug": 2439,
      "itud": 2440,
      "Ġstay": 2441,
      "Ġclimate": 2442,
      "###": 2443,
      "Ġla": 2444,
      "ĠYour": 2445,
      "aving": 2446,
      "ĠAdditionally": 2447,
      "For": 2448,
      "Ġjob": 2449,
      "ĠMe": 2450,
      "Ġtransform": 2451,
      "eds": 2452,
      "Ġimportance": 2453,
      "rel": 2454,
      "Ġaction": 2455,
      "ologies": 2456,
      "Ġsent": 2457,
      "olve": 2458,
      "Ã©": 2459,
      "Ġprograms": 2460,
      "ience": 2461,
      "Ġport": 2462,
      "Ġhouse": 2463,
      "rehe": 2464,
      "Ġrelationships": 2465,
      "Ġmultiple": 2466,
      "Ġsurface": 2467,
      "Ġtell": 2468,
      "Ġbrain": 2469,
      "Ġapproach": 2470,
      "Ġentire": 2471,
      "ĠMore": 2472,
      "Ġbehind": 2473,
      "ĠAmerica": 2474,
      "He": 2475,
      "oes": 2476,
      "ĠEarth": 2477,
      "Ġseen": 2478,
      "Ġface": 2479,
      "Ġpath": 2480,
      "Ġtas": 2481,
      "Ġscen": 2482,
      "Ġlikely": 2483,
      "Ġsubject": 2484,
      "Ġterm": 2485,
      "itation": 2486,
      "ĠSu": 2487,
      "Ġsources": 2488,
      "based": 2489,
      "ĠUS": 2490,
      "Ġbar": 2491,
      "ground": 2492,
      "Ġchapter": 2493,
      "Ġminim": 2494,
      "Ġfall": 2495,
      "Ġstarted": 2496,
      "16": 2497,
      "sc": 2498,
      "iol": 2499,
      "Ġcontent": 2500,
      "Ġparts": 2501,
      "ĠTra": 2502,
      "Ġindustry": 2503,
      "Ġpriv": 2504,
      "Ġwal": 2505,
      "Ġut": 2506,
      "ulate": 2507,
      "aily": 2508,
      "ĠHealth": 2509,
      "orks": 2510,
      "ese": 2511,
      "Ġfascinating": 2512,
      "ancial": 2513,
      "Ġgreen": 2514,
      "Ġred": 2515,
      "Ġreally": 2516,
      "Ġeth": 2517,
      "Ġforms": 2518,
      "Ġperspect": 2519,
      "Ġmoney": 2520,
      "Ġbeyond": 2521,
      "Ġidea": 2522,
      "Ġindic": 2523,
      "Ġflu": 2524,
      "Ġregular": 2525,
      "care": 2526,
      "verage": 2527,
      "**:": 2528,
      "sh": 2529,
      "ĠHist": 2530,
      "oll": 2531,
      "Ġhealthy": 2532,
      "Ġec": 2533,
      "Ġpopulation": 2534,
      "Ġaspects": 2535,
      "Ġpaper": 2536,
      "Ġexact": 2537,
      "iet": 2538,
      "Ġsun": 2539,
      "Ġbroad": 2540,
      "Ġclean": 2541,
      "//": 2542,
      "Ġcompany": 2543,
      "play": 2544,
      "iment": 2545,
      "Ġlower": 2546,
      "18": 2547,
      "Ġdemonstr": 2548,
      "How": 2549,
      "nal": 2550,
      "more": 2551,
      "Ġgame": 2552,
      "Ġvisual": 2553,
      "het": 2554,
      "Ġcomputer": 2555,
      "Ġability": 2556,
      "ird": 2557,
      "rict": 2558,
      "Ġnavig": 2559,
      "Ġoptim": 2560,
      "ried": 2561,
      "most": 2562,
      "Ġpatients": 2563,
      "Ġcamp": 2564,
      "Ġmor": 2565,
      "Ġdest": 2566,
      "mon": 2567,
      "pri": 2568,
      "Ġcases": 2569,
      "St": 2570,
      "urs": 2571,
      "Ġproviding": 2572,
      "ĠBrit": 2573,
      "ĠInt": 2574,
      "Ġtook": 2575,
      "Ġcontemporary": 2576,
      "Ġrecomm": 2577,
      "Ġinsights": 2578,
      "Ġparticularly": 2579,
      "Ġmechan": 2580,
      "ided": 2581,
      "Ġcool": 2582,
      "iring": 2583,
      "Ġpsych": 2584,
      "Ġinvolves": 2585,
      "ength": 2586,
      "Ġmass": 2587,
      "Ġoffers": 2588,
      "Ġnational": 2589,
      "ĠKe": 2590,
      "iddle": 2591,
      "ample": 2592,
      "oday": 2593,
      "Ġones": 2594,
      "ung": 2595,
      "Ġvide": 2596,
      "Ġtrue": 2597,
      "ĠSim": 2598,
      "holder": 2599,
      "ĠCal": 2600,
      "ĠJew": 2601,
      "Ġaltern": 2602,
      "Ġwebs": 2603,
      "Ġabs": 2604,
      "hood": 2605,
      "Ġeverything": 2606,
      "Ġadult": 2607,
      "Ġpowerful": 2608,
      "Ġdeb": 2609,
      "Ġactivity": 2610,
      "hern": 2611,
      "ĠUnderstanding": 2612,
      "hib": 2613,
      "Ġlab": 2614,
      "Ġrev": 2615,
      "ĠChapter": 2616,
      "So": 2617,
      "ront": 2618,
      "igen": 2619,
      "vant": 2620,
      "Ġeither": 2621,
      "Ġprogress": 2622,
      "way": 2623,
      "agement": 2624,
      "Ġservice": 2625,
      "oved": 2626,
      "Ġfive": 2627,
      "Ġann": 2628,
      "Ġled": 2629,
      "Ġgeneral": 2630,
      "uel": 2631,
      "ĠRep": 2632,
      "enced": 2633,
      "rast": 2634,
      "rew": 2635,
      "hing": 2636,
      "ops": 2637,
      "Ġhab": 2638,
      "pid": 2639,
      "ancing": 2640,
      "ĠGerm": 2641,
      "know": 2642,
      "Ġword": 2643,
      "ĠDr": 2644,
      "ched": 2645,
      "ĠX": 2646,
      "ynam": 2647,
      "ift": 2648,
      "Ġprovided": 2649,
      "Ġfavor": 2650,
      "oint": 2651,
      "Ġdigital": 2652,
      "ĠMy": 2653,
      "Ġwa": 2654,
      "dom": 2655,
      "ĠPe": 2656,
      "ĠGe": 2657,
      "reg": 2658,
      "Ġinvolved": 2659,
      "Ġcode": 2660,
      "Ġintrodu": 2661,
      "Con": 2662,
      "alu": 2663,
      "ĠAct": 2664,
      "Ġextra": 2665,
      "Ġwarm": 2666,
      "ography": 2667,
      "urch": 2668,
      "Ġbooks": 2669,
      "ready": 2670,
      "Ġmedic": 2671,
      "ounter": 2672,
      "ply": 2673,
      "unt": 2674,
      "Ġconduct": 2675,
      "Ġwhole": 2676,
      "Ġuser": 2677,
      "Ġmatter": 2678,
      "ores": 2679,
      "Ġplat": 2680,
      "ptoms": 2681,
      "Ġmic": 2682,
      "Ġdistrib": 2683,
      "Ġsite": 2684,
      "ĠPr": 2685,
      "Ġstress": 2686,
      "Ġparamet": 2687,
      "Ġheav": 2688,
      "Ġ--": 2689,
      "ĠHis": 2690,
      "ĠRem": 2691,
      "Ġconc": 2692,
      "ĠAb": 2693,
      "ublic": 2694,
      "ilies": 2695,
      "Ġconvers": 2696,
      "Ġpressure": 2697,
      "Ġdoing": 2698,
      "ĠJohn": 2699,
      "phas": 2700,
      "eper": 2701,
      "Ġcontribute": 2702,
      "Ġdeg": 2703,
      "Ġbur": 2704,
      "rect": 2705,
      "ĠNorth": 2706,
      "There": 2707,
      "istics": 2708,
      "Ð¾": 2709,
      "Ġprob": 2710,
      "Ġmix": 2711,
      "ule": 2712,
      "Ġwide": 2713,
      "Ġtur": 2714,
      "emic": 2715,
      "Ġfeed": 2716,
      "Ġdaily": 2717,
      "bon": 2718,
      "ror": 2719,
      "vert": 2720,
      "Ġaccur": 2721,
      "Ġfail": 2722,
      "Ġopp": 2723,
      "lam": 2724,
      "Ġpict": 2725,
      "Ġvisit": 2726,
      "Ġreason": 2727,
      "Ġsex": 2728,
      "'ve": 2729,
      "Ġlog": 2730,
      "ĠIntern": 2731,
      "If": 2732,
      "olic": 2733,
      "Ġtaken": 2734,
      "Ġstrugg": 2735,
      "rig": 2736,
      "Ġcommit": 2737,
      "Ġgreater": 2738,
      "Ġideas": 2739,
      "Ġstra": 2740,
      "ĠJust": 2741,
      "Ġsource": 2742,
      "Ġavoid": 2743,
      "Ġgain": 2744,
      "Ġsaf": 2745,
      "Ġscientists": 2746,
      "Ġaware": 2747,
      "Ġarchitecture": 2748,
      "Ġcompan": 2749,
      "ervation": 2750,
      "ales": 2751,
      "Ġdecision": 2752,
      "uth": 2753,
      "ĠNo": 2754,
      "Ġeasy": 2755,
      "Ġrou": 2756,
      "200": 2757,
      "Ġachieve": 2758,
      "Ġalready": 2759,
      "Ġhumans": 2760,
      "Ġsepar": 2761,
      "yl": 2762,
      "itary": 2763,
      "Ġreve": 2764,
      "Ġconnections": 2765,
      "Ġ30": 2766,
      "Ġstates": 2767,
      "Ġprec": 2768,
      "Ġheat": 2769,
      "part": 2770,
      "Ġrecent": 2771,
      "Ġrequired": 2772,
      "><|": 2773,
      "Ġshared": 2774,
      "Ġ198": 2775,
      "Ġ11": 2776,
      "vey": 2777,
      "osing": 2778,
      "Ġing": 2779,
      "Ġleaders": 2780,
      "Ġdeveloped": 2781,
      "Ġinside": 2782,
      "fs": 2783,
      "Ġfarm": 2784,
      "ĠWell": 2785,
      "arily": 2786,
      "just": 2787,
      "Ġidentity": 2788,
      "onse": 2789,
      "aced": 2790,
      "Ġfish": 2791,
      "Ex": 2792,
      "Ġdeveloping": 2793,
      "Ġhours": 2794,
      "ĠGu": 2795,
      "Ġmag": 2796,
      "Ġfinancial": 2797,
      "ned": 2798,
      "ĠCour": 2799,
      "placeholder": 2800,
      "ae": 2801,
      "ows": 2802,
      "Ġweek": 2803,
      "rior": 2804,
      "ils": 2805,
      "Ġterms": 2806,
      "Ġitself": 2807,
      "Ġappropri": 2808,
      "Ġprinciples": 2809,
      "Ġcharacters": 2810,
      "iful": 2811,
      "Ġblack": 2812,
      "resh": 2813,
      "Ġreading": 2814,
      "overy": 2815,
      "Ġsafety": 2816,
      "Ġstructure": 2817,
      "Ġprocesses": 2818,
      "Ġwin": 2819,
      "uted": 2820,
      "127": 2821,
      "olving": 2822,
      "Ġwhite": 2823,
      "nds": 2824,
      "ĠEnglish": 2825,
      "Ġregion": 2826,
      "Ġdiscover": 2827,
      "Ġpoints": 2828,
      "acc": 2829,
      "med": 2830,
      "Ġslow": 2831,
      "Ġdone": 2832,
      "Ġparents": 2833,
      "icles": 2834,
      "ously": 2835,
      "ĠComp": 2836,
      "ĠSci": 2837,
      "Ġefficient": 2838,
      "Ġbelow": 2839,
      "Ġwriting": 2840,
      "Ġ+": 2841,
      "opp": 2842,
      "Ġplatform": 2843,
      "ĠOver": 2844,
      "On": 2845,
      "inct": 2846,
      "ĠSouth": 2847,
      "Ġreact": 2848,
      "Ġapplications": 2849,
      "minist": 2850,
      "isms": 2851,
      "Ġmeasure": 2852,
      "umb": 2853,
      "astic": 2854,
      "Ġproduce": 2855,
      "Ġdrug": 2856,
      "Ġtakes": 2857,
      "enge": 2858,
      "Ġspread": 2859,
      "ĠYork": 2860,
      "11": 2861,
      "Ġsurv": 2862,
      "NA": 2863,
      "Ġoutside": 2864,
      "Ġspirit": 2865,
      "pes": 2866,
      "Ġcop": 2867,
      "Ġgrowing": 2868,
      "Ġdeeper": 2869,
      "Ġthinking": 2870,
      "Ġrequires": 2871,
      "Ġrate": 2872,
      "Ġreligious": 2873,
      "ĠCo": 2874,
      "ifically": 2875,
      "elcome": 2876,
      "erson": 2877,
      "uck": 2878,
      "ĠCar": 2879,
      "Ġinterp": 2880,
      "Ġdive": 2881,
      "Ġcat": 2882,
      "Ġregarding": 2883,
      "Ġtot": 2884,
      "Ġcomprehe": 2885,
      "Ġgas": 2886,
      "ĠDep": 2887,
      "When": 2888,
      "30": 2889,
      "eration": 2890,
      "Ġsuccessful": 2891,
      "Ġreview": 2892,
      "Ġshape": 2893,
      "Ġweight": 2894,
      "Ġ*": 2895,
      "Imagine": 2896,
      "By": 2897,
      "ump": 2898,
      "Ġsymb": 2899,
      "Ġrelated": 2900,
      "ĠResearch": 2901,
      "Ġcalc": 2902,
      "Ġminutes": 2903,
      "Ġskin": 2904,
      "Ġwild": 2905,
      "oles": 2906,
      "iation": 2907,
      "Ġnumbers": 2908,
      "ĠUse": 2909,
      "Ġusers": 2910,
      "iam": 2911,
      "Ġsymptoms": 2912,
      "Ġevalu": 2913,
      "leep": 2914,
      "pose": 2915,
      "oming": 2916,
      "Ġtransport": 2917,
      "Ġthreat": 2918,
      "ĠUs": 2919,
      "Ġadvent": 2920,
      "bo": 2921,
      "hel": 2922,
      "ume": 2923,
      "Ġactually": 2924,
      "Ġconflic": 2925,
      "Ġassess": 2926,
      "Ġmovement": 2927,
      "Ġimagine": 2928,
      "Ġschools": 2929,
      "Ġintegr": 2930,
      "Ġinitial": 2931,
      "Ġdynam": 2932,
      "://": 2933,
      "Ġquickly": 2934,
      "Ġinvestig": 2935,
      "Ġcele": 2936,
      "Ġhalf": 2937,
      "Ġ14": 2938,
      "ĠFrom": 2939,
      "itle": 2940,
      "Ġbuilt": 2941,
      "Ġdisord": 2942,
      "ĠPre": 2943,
      "Ġprep": 2944,
      "Ġfa": 2945,
      "Ġinput": 2946,
      "ached": 2947,
      "Ġshows": 2948,
      "Ġnamed": 2949,
      "Ġnovel": 2950,
      "ĠEach": 2951,
      "Ġveget": 2952,
      "Ġmonths": 2953,
      "rad": 2954,
      "apan": 2955,
      "oration": 2956,
      "Ġlandsc": 2957,
      "Ġallowing": 2958,
      "Ġancient": 2959,
      "Ġperfect": 2960,
      "mber": 2961,
      "Ġemphas": 2962,
      "Ġx": 2963,
      "ilos": 2964,
      "Ġincludes": 2965,
      "Ġimage": 2966,
      "Ġlate": 2967,
      "Ġposition": 2968,
      "Ġfamilies": 2969,
      "rought": 2970,
      "Ġcolle": 2971,
      "Ġaccept": 2972,
      "den": 2973,
      "illing": 2974,
      "Ġprote": 2975,
      "izes": 2976,
      "Ġremains": 2977,
      "Ġelse": 2978,
      "Ġclaim": 2979,
      "Ġlength": 2980,
      "Ġprevious": 2981,
      "ER": 2982,
      "Ġfram": 2983,
      "idered": 2984,
      "Ġnight": 2985,
      "itor": 2986,
      "Ġadapt": 2987,
      "Ġconclusion": 2988,
      "Ġlibr": 2989,
      "Ġdiv": 2990,
      "ober": 2991,
      "itution": 2992,
      "Ġwritten": 2993,
      "Ġstudent": 2994,
      "Ġlooking": 2995,
      "artment": 2996,
      "ĠPres": 2997,
      "che": 2998,
      "Ġinfluence": 2999,
      "ension": 3000,
      "Ġbecomes": 3001,
      "term": 3002,
      "Ġdoesn": 3003,
      "Ġsearch": 3004,
      "ades": 3005,
      "ura": 3006,
      "iency": 3007,
      "Ġorganizations": 3008,
      "Ġsimply": 3009,
      "empt": 3010,
      "Ġsett": 3011,
      "Ġsqu": 3012,
      "Ġ197": 3013,
      "Ġoriginal": 3014,
      "reme": 3015,
      "Ġcontact": 3016,
      "Ġestablish": 3017,
      "Ġthr": 3018,
      "Ġcomponents": 3019,
      "ĠMany": 3020,
      "ensive": 3021,
      "Ġbelieve": 3022,
      "Ġcannot": 3023,
      "odies": 3024,
      "Ġult": 3025,
      "Ġengaging": 3026,
      "Ġbeautiful": 3027,
      "Ġviol": 3028,
      "Ġri": 3029,
      "ĠRec": 3030,
      "ying": 3031,
      "Ġresponsible": 3032,
      "Ġrich": 3033,
      "Ġtax": 3034,
      "Ġearl": 3035,
      "ai": 3036,
      "head": 3037,
      "ĠAust": 3038,
      "AS": 3039,
      "Ġcompared": 3040,
      "Ġseries": 3041,
      "vere": 3042,
      "Ġsignificantly": 3043,
      "Ġsociet": 3044,
      "Ġfru": 3045,
      "Ġresponse": 3046,
      "ricult": 3047,
      "estern": 3048,
      "Ġfire": 3049,
      "ĠOnce": 3050,
      "Ġlif": 3051,
      "Ġresist": 3052,
      "Ġsoftware": 3053,
      "ronic": 3054,
      "ederal": 3055,
      "ustr": 3056,
      "bor": 3057,
      "eria": 3058,
      "Ġconsidered": 3059,
      "Ġpolicy": 3060,
      "Ġhope": 3061,
      "Ġscientific": 3062,
      "igenous": 3063,
      "ĠAg": 3064,
      "Ġsy": 3065,
      "Ġful": 3066,
      "?\"": 3067,
      "IV": 3068,
      "Ġsurrounding": 3069,
      "rown": 3070,
      "Ġinternational": 3071,
      "ony": 3072,
      "Ġconcerns": 3073,
      "Ġpan": 3074,
      "Ġcross": 3075,
      "where": 3076,
      "Ġadop": 3077,
      "Ġcit": 3078,
      "Ġtrust": 3079,
      "Ġgetting": 3080,
      "omet": 3081,
      "mar": 3082,
      "ĠFe": 3083,
      "ĠToday": 3084,
      "Ġfem": 3085,
      "ĠNow": 3086,
      "duc": 3087,
      "ĠSec": 3088,
      "Ġcheck": 3089,
      "inated": 3090,
      "Ġtemperature": 3091,
      "Let": 3092,
      "ĠAcc": 3093,
      "Ġcivil": 3094,
      "Ġissue": 3095,
      "Ġserve": 3096,
      "oor": 3097,
      "Ġprimary": 3098,
      "Ġbusinesses": 3099,
      "aged": 3100,
      "ls": 3101,
      "ĠJapan": 3102,
      "Ġtrying": 3103,
      "Ġpromote": 3104,
      "inc": 3105,
      "Ġforest": 3106,
      "rs": 3107,
      "ĠĊ": 3108,
      "mb": 3109,
      "Ġcontinued": 3110,
      "Ġgoals": 3111,
      "Ġhor": 3112,
      "Ġvo": 3113,
      "Ġchallenge": 3114,
      "ĠHer": 3115,
      "Ġbound": 3116,
      "encies": 3117,
      "Ġstandard": 3118,
      "Ġstructures": 3119,
      "Ġsharing": 3120,
      "itute": 3121,
      "back": 3122,
      "Ġago": 3123,
      "Ġisn": 3124,
      "Ġimages": 3125,
      "Ġbreat": 3126,
      "Ġsequ": 3127,
      "Ġadditional": 3128,
      "\".": 3129,
      "Ġfelt": 3130,
      "life": 3131,
      "ields": 3132,
      "Ġchemical": 3133,
      "Ġlonger": 3134,
      "ĠReg": 3135,
      "ĠCanad": 3136,
      "Ġfilled": 3137,
      "Ġtalk": 3138,
      "ties": 3139,
      "Ġindepend": 3140,
      "Ġnumerous": 3141,
      "wide": 3142,
      "Ġcondition": 3143,
      "ĠArt": 3144,
      "Ġensuring": 3145,
      "alls": 3146,
      "Ġfit": 3147,
      "vention": 3148,
      "Ġlat": 3149,
      "Ġpublished": 3150,
      "Ġdim": 3151,
      "osis": 3152,
      "Ġbasic": 3153,
      "ĠâĢĺ": 3154,
      "ĠFurther": 3155,
      "Ġast": 3156,
      "Ġconcepts": 3157,
      "Ġprojects": 3158,
      "Ġkids": 3159,
      "Ġseason": 3160,
      "iny": 3161,
      "rim": 3162,
      "aff": 3163,
      "Ġexamples": 3164,
      "ĠState": 3165,
      "itable": 3166,
      "Ġtheory": 3167,
      "redients": 3168,
      "Ġimag": 3169,
      "Ġhands": 3170,
      "Ġrob": 3171,
      "equ": 3172,
      "15": 3173,
      "Ġrules": 3174,
      "Ġcommunic": 3175,
      "ĠQu": 3176,
      "Ġheard": 3177,
      "Ðµ": 3178,
      "Ġoptions": 3179,
      "hemat": 3180,
      "Ġappe": 3181,
      "efore": 3182,
      "gar": 3183,
      "ĊĠĠĠĠĠĠĠ": 3184,
      ".)": 3185,
      "ellow": 3186,
      "gest": 3187,
      "Ġasked": 3188,
      "Ġdiagn": 3189,
      "ĠDevelop": 3190,
      "Ġ196": 3191,
      "Ġthing": 3192,
      "Ġcompanies": 3193,
      "Ġliterature": 3194,
      "org": 3195,
      "Ġeyes": 3196,
      "Ġpack": 3197,
      "Ġfresh": 3198,
      "Ġdecided": 3199,
      "uries": 3200,
      "Ġfair": 3201,
      "Ġlot": 3202,
      "Ġsection": 3203,
      "Ġrates": 3204,
      "Ġund": 3205,
      "Ġalmost": 3206,
      "Ġdocument": 3207,
      "amples": 3208,
      "13": 3209,
      "Ġbalance": 3210,
      "ĠImagine": 3211,
      "Ġdevices": 3212,
      "Ġapplication": 3213,
      "Ġded": 3214,
      "uments": 3215,
      "Ġappropriate": 3216,
      "Ġeffectively": 3217,
      "Ġreach": 3218,
      "issions": 3219,
      "ĠTechn": 3220,
      "ements": 3221,
      "ES": 3222,
      "Ġlo": 3223,
      "Ġdiscovered": 3224,
      "Ġcomfort": 3225,
      "AR": 3226,
      "right": 3227,
      "Ġlines": 3228,
      "Ġsoon": 3229,
      "itude": 3230,
      "Ġsecurity": 3231,
      "Ġroom": 3232,
      "Ġinstall": 3233,
      "haps": 3234,
      "Ġarticle": 3235,
      "Ġsuff": 3236,
      "rench": 3237,
      "Ġ13": 3238,
      "su": 3239,
      "Ġofficial": 3240,
      "Ġvia": 3241,
      "osure": 3242,
      "25": 3243,
      "Ġsolutions": 3244,
      "Ġalg": 3245,
      "ille": 3246,
      "ĠSchool": 3247,
      "Ġsix": 3248,
      "Ġdiet": 3249,
      "Ġhealthcare": 3250,
      "Ġsoil": 3251,
      "Ġtotal": 3252,
      "Ġitems": 3253,
      "cious": 3254,
      "ellig": 3255,
      "chol": 3256,
      "Ġexce": 3257,
      "Ġlarger": 3258,
      "Ġobjects": 3259,
      "Ġreaders": 3260,
      "Ġcaused": 3261,
      "Ġmagn": 3262,
      "ferences": 3263,
      "Ġcam": 3264,
      "Ġsil": 3265,
      "Ġdat": 3266,
      "ected": 3267,
      "Ġdifferences": 3268,
      "Ġpiece": 3269,
      "Ġi": 3270,
      "Ġdidn": 3271,
      "ĠPart": 3272,
      "ĠInc": 3273,
      "oud": 3274,
      "ching": 3275,
      "Ġnetwork": 3276,
      "Ġactive": 3277,
      "ilit": 3278,
      "Ġearth": 3279,
      "ĠChristian": 3280,
      "17": 3281,
      "ufact": 3282,
      "pper": 3283,
      "Ġprior": 3284,
      "lease": 3285,
      "Ġdecisions": 3286,
      "Ġelectric": 3287,
      "athy": 3288,
      "Ġmoment": 3289,
      "Ġcover": 3290,
      "ĠFl": 3291,
      "Ġprofessional": 3292,
      "AT": 3293,
      "time": 3294,
      "aly": 3295,
      "Ġestablished": 3296,
      "Ġwood": 3297,
      "Ġeye": 3298,
      "Ġsn": 3299,
      "Ġrefer": 3300,
      "ĠExpl": 3301,
      "Ġhot": 3302,
      "ene": 3303,
      "Ġvideo": 3304,
      "Ġbill": 3305,
      "Ġmodels": 3306,
      "Ġagre": 3307,
      "atively": 3308,
      "Ġiniti": 3309,
      "Ġwebsite": 3310,
      "Ġforce": 3311,
      "Ġsect": 3312,
      "Ġpoll": 3313,
      "Ġanimal": 3314,
      "Ġcelebr": 3315,
      "Ġtechnologies": 3316,
      "Ġcontinu": 3317,
      "Ġcultures": 3318,
      "Ġinj": 3319,
      "Ġsus": 3320,
      "Ġsaw": 3321,
      "Ġappl": 3322,
      "Ġgate": 3323,
      "Ġtool": 3324,
      "Ġlink": 3325,
      "Ġfear": 3326,
      "Ġengage": 3327,
      "Ġsleep": 3328,
      "ding": 3329,
      "Ġrelevant": 3330,
      "Ġdark": 3331,
      "Ġpropos": 3332,
      "Ġcook": 3333,
      "Ġfat": 3334,
      "cks": 3335,
      "Ġlabor": 3336,
      "ĠTheir": 3337,
      "Ġlegal": 3338,
      "Ġfavorite": 3339,
      "Ġsea": 3340,
      "rial": 3341,
      "Ġactions": 3342,
      "Ġfoot": 3343,
      "anks": 3344,
      "Ġver": 3345,
      "urg": 3346,
      "Ġvirt": 3347,
      "Ð°": 3348,
      "ipment": 3349,
      "Ġcosts": 3350,
      "ĠOur": 3351,
      "Ġinvolve": 3352,
      "Ġ100": 3353,
      "And": 3354,
      "ĠSm": 3355,
      "Ġrapid": 3356,
      "Ġexactly": 3357,
      "ĠUnit": 3358,
      "versity": 3359,
      "aign": 3360,
      "Ġpredict": 3361,
      "Ġguide": 3362,
      "idge": 3363,
      "Ġneigh": 3364,
      "Ġtown": 3365,
      "Ġattempt": 3366,
      "Ġembra": 3367,
      "Ġstri": 3368,
      "ĠNot": 3369,
      "Ġpatient": 3370,
      "Ġplaces": 3371,
      "tered": 3372,
      "Ġbran": 3373,
      "hips": 3374,
      "ĠHar": 3375,
      "Ġpolicies": 3376,
      "cean": 3377,
      "Ġcomprehens": 3378,
      "Ġthous": 3379,
      "You": 3380,
      "Ġexplain": 3381,
      "elines": 3382,
      "Ġpage": 3383,
      "Ġplaying": 3384,
      "ĠTrans": 3385,
      "Ġknew": 3386,
      "Ġadded": 3387,
      "ulated": 3388,
      "ĠBritish": 3389,
      "iter": 3390,
      "abilities": 3391,
      "Ġmis": 3392,
      "Ġforward": 3393,
      "Ġmount": 3394,
      "Ġdamage": 3395,
      "Ġemotional": 3396,
      "ĠMod": 3397,
      "plications": 3398,
      "Ġwent": 3399,
      "Ġmilitary": 3400,
      "Ġchallenging": 3401,
      "Ġmax": 3402,
      "iliar": 3403,
      "Ġeasily": 3404,
      "Ġreci": 3405,
      "ashing": 3406,
      "Ġautom": 3407,
      "ttp": 3408,
      "Ġcarbon": 3409,
      "Ġdistinct": 3410,
      "Ġgraph": 3411,
      "Ġep": 3412,
      "Ġwhose": 3413,
      "Ġpromoting": 3414,
      "Ġbackground": 3415,
      "Ġdou": 3416,
      "Ġmaintaining": 3417,
      "Ġspeak": 3418,
      "Ġinstruct": 3419,
      "Ġtypically": 3420,
      "comes": 3421,
      "irm": 3422,
      "lands": 3423,
      "Ġphilos": 3424,
      "Ġheld": 3425,
      "Ġfight": 3426,
      "ĠFurthermore": 3427,
      "Ġask": 3428,
      "ĠFr": 3429,
      "Ġfeet": 3430,
      "Ġ50": 3431,
      "Ġoutput": 3432,
      "Ġpow": 3433,
      "Ġconsequ": 3434,
      "going": 3435,
      "Ġparameters": 3436,
      "zing": 3437,
      "ÑĤ": 3438,
      "Ġgoal": 3439,
      "ĠDis": 3440,
      "Ġspecifically": 3441,
      "Ġdetails": 3442,
      "iles": 3443,
      "Ġgot": 3444,
      "inks": 3445,
      "Ġlived": 3446,
      "Ġfeelings": 3447,
      "Ġimmedi": 3448,
      "Ġcorrect": 3449,
      "Ġdifference": 3450,
      "ĠWill": 3451,
      "Ġearlier": 3452,
      "Ġquant": 3453,
      "Ġexpand": 3454,
      "ĠEast": 3455,
      "Ġnation": 3456,
      "ucle": 3457,
      "Ġlimited": 3458,
      "Ġhon": 3459,
      "ought": 3460,
      "Ġplays": 3461,
      "Ġdial": 3462,
      "Ġappreciate": 3463,
      "Ġetc": 3464,
      "ĠCenter": 3465,
      "ĠEuropean": 3466,
      "orith": 3467,
      "Ġlessons": 3468,
      "Ġtable": 3469,
      "Ġprofession": 3470,
      "Ġdang": 3471,
      "Ġfeature": 3472,
      "Ġhost": 3473,
      "ief": 3474,
      "Ġmeasures": 3475,
      "Ġconnection": 3476,
      "Ġstyle": 3477,
      "Ġdelve": 3478,
      "ino": 3479,
      "mosp": 3480,
      "Ġplanning": 3481,
      "amb": 3482,
      "ĠEd": 3483,
      "Ġice": 3484,
      "iers": 3485,
      "ĠTw": 3486,
      "ĠScience": 3487,
      "Ġartists": 3488,
      "ĠAlthough": 3489,
      "Ġmachine": 3490,
      "Ġaverage": 3491,
      "ĠInter": 3492,
      "Ġroad": 3493,
      "Ġfunctions": 3494,
      "asons": 3495,
      "reet": 3496,
      "Ġmemory": 3497,
      "ests": 3498,
      "Ġir": 3499,
      "ID": 3500,
      "Ġsustainable": 3501,
      "Ġwanted": 3502,
      "Ġchoose": 3503,
      "Ġquite": 3504,
      "Ġcitiz": 3505,
      "Ġdog": 3506,
      "Ġdemand": 3507,
      "ok": 3508,
      "uge": 3509,
      "Ġang": 3510,
      "Ġproced": 3511,
      "Ġjud": 3512,
      "Ġtrees": 3513,
      "ilarly": 3514,
      "Ġexercise": 3515,
      "ĠRemember": 3516,
      "Ġrefers": 3517,
      "Ġpractical": 3518,
      "Ġ#": 3519,
      "ĠMoreover": 3520,
      "Ġlaws": 3521,
      "Ġlost": 3522,
      "Ġnormal": 3523,
      "Ġgames": 3524,
      "Ġdoctor": 3525,
      "Ġrespond": 3526,
      "Ġbrought": 3527,
      "ĠAfrican": 3528,
      "ĠChe": 3529,
      "Ġpieces": 3530,
      "Ġwrite": 3531,
      "Ġenhance": 3532,
      "rong": 3533,
      "wise": 3534,
      "Ġnews": 3535,
      "ĠMin": 3536,
      "Ġadminist": 3537,
      "Ġfostering": 3538,
      "ĠEduc": 3539,
      "Ġemotions": 3540,
      "Ġaccom": 3541,
      "Ġconstruct": 3542,
      "Ġcolon": 3543,
      "Ġlack": 3544,
      "Ġmanufact": 3545,
      "At": 3546,
      "Ġdetermine": 3547,
      "Ġmention": 3548,
      "Ġgard": 3549,
      "Ġtree": 3550,
      "Ġresid": 3551,
      "--------------------------------": 3552,
      "Ġvariety": 3553,
      "Ġcore": 3554,
      "Ġadvant": 3555,
      "mental": 3556,
      "Ġreducing": 3557,
      "Ġthemes": 3558,
      "Ġsetting": 3559,
      "Ġdisplay": 3560,
      "Ġadjust": 3561,
      "Ġadvance": 3562,
      "erate": 3563,
      "room": 3564,
      "Ġrisks": 3565,
      "useum": 3566,
      "ounds": 3567,
      "works": 3568,
      "Ġmyst": 3569,
      "Ġbase": 3570,
      "Ġgenerations": 3571,
      ");": 3572,
      "Ġfile": 3573,
      "Ġfeeling": 3574,
      "Ġ25": 3575,
      "Ġfra": 3576,
      "Ġthoughts": 3577,
      "ĠFrench": 3578,
      "ancy": 3579,
      "urt": 3580,
      "uild": 3581,
      "ĠCount": 3582,
      "Ġcauses": 3583,
      "Ġteachers": 3584,
      "Ġfoods": 3585,
      "Ġpeace": 3586,
      "Ġdefin": 3587,
      "Ġsignificance": 3588,
      "Ġincred": 3589,
      "Conclusion": 3590,
      "Ġincl": 3591,
      "Ġswe": 3592,
      "ky": 3593,
      "Ġforces": 3594,
      "Ġwatch": 3595,
      "ĠDuring": 3596,
      "Ġfinal": 3597,
      "ĠMon": 3598,
      "Ġsituation": 3599,
      "ister": 3600,
      "Ġ194": 3601,
      "Ġutil": 3602,
      "Ġperspectives": 3603,
      "pond": 3604,
      "Ġplanet": 3605,
      "Ġweather": 3606,
      "Ġshaping": 3607,
      "Ġexcept": 3608,
      "ĠKing": 3609,
      "Ġnarrat": 3610,
      "Ġlocation": 3611,
      "Ġcenter": 3612,
      "inate": 3613,
      "ĠJu": 3614,
      "____": 3615,
      "Ġoutcomes": 3616,
      "ees": 3617,
      "Ġfinding": 3618,
      "set": 3619,
      "Ġcareful": 3620,
      "Ġcateg": 3621,
      "Ġfaced": 3622,
      "overn": 3623,
      "azing": 3624,
      "Ġvital": 3625,
      "Ġtasks": 3626,
      "Ġapproaches": 3627,
      "Ġgradu": 3628,
      "ĠGra": 3629,
      "Ġdespite": 3630,
      "ĠÂ": 3631,
      "Ġillustr": 3632,
      "Ġmother": 3633,
      "ĠGl": 3634,
      "Ġeducational": 3635,
      "IN": 3636,
      "Ġshown": 3637,
      "iced": 3638,
      "Ġlayers": 3639,
      "ĠII": 3640,
      "iveness": 3641,
      "eding": 3642,
      "Ġproduced": 3643,
      "Ġtou": 3644,
      "zz": 3645,
      "Ġacad": 3646,
      "Ġcreative": 3647,
      "ĠPy": 3648,
      "Ġinteresting": 3649,
      "ĠEl": 3650,
      "ĠCommun": 3651,
      "Ġgender": 3652,
      "ĠAc": 3653,
      "Ġonto": 3654,
      "Ġexisting": 3655,
      "Ġcred": 3656,
      "ocks": 3657,
      "ĠFirst": 3658,
      "Ġequipment": 3659,
      "Ġcentral": 3660,
      "aught": 3661,
      "uman": 3662,
      "ON": 3663,
      "Ġtopics": 3664,
      "ĠFran": 3665,
      "Ġclos": 3666,
      "ĠHere": 3667,
      "used": 3668,
      "ĠPar": 3669,
      "Ġ2012": 3670,
      "Ġcampaign": 3671,
      "hy": 3672,
      "ĠCre": 3673,
      "rap": 3674,
      "Ġcard": 3675,
      "Ġhelping": 3676,
      "bre": 3677,
      "Ġinstru": 3678,
      "Ġegg": 3679,
      "Ġagricult": 3680,
      "Ġthus": 3681,
      "ĠCalif": 3682,
      "ana": 3683,
      "Ġincreasingly": 3684,
      "Ġtend": 3685,
      "Ġalternative": 3686,
      "rie": 3687,
      "Ġrout": 3688,
      "Ġreported": 3689,
      "Ġmathemat": 3690,
      "ĠServ": 3691,
      "Ġbab": 3692,
      "cript": 3693,
      "Ġtraditions": 3694,
      "Ġanything": 3695,
      "Ġfront": 3696,
      "Ġanswer": 3697,
      "ingu": 3698,
      "Ġalgorith": 3699,
      "Ġsmaller": 3700,
      "Ġstore": 3701,
      "Ġfast": 3702,
      "vest": 3703,
      "Ġingredients": 3704,
      "Ġcarry": 3705,
      "Ġwaste": 3706,
      "Ġtherapy": 3707,
      "Ġcolors": 3708,
      "ĠMus": 3709,
      "Ġnegative": 3710,
      "Ġbit": 3711,
      "Ġsche": 3712,
      "Ġveh": 3713,
      "bit": 3714,
      "Ġincluded": 3715,
      "Ġtrade": 3716,
      "Ġteach": 3717,
      "lation": 3718,
      "abet": 3719,
      "osition": 3720,
      "ĠAustral": 3721,
      "Ġexec": 3722,
      "Ġprotection": 3723,
      "eks": 3724,
      "Ġestim": 3725,
      "Ġhyd": 3726,
      "Ġmicro": 3727,
      "rain": 3728,
      "anging": 3729,
      "Ġawareness": 3730,
      "olec": 3731,
      "ĠAdd": 3732,
      "omy": 3733,
      "Ġfamous": 3734,
      "Ġdream": 3735,
      "Ġpartners": 3736,
      "Ġfuel": 3737,
      "urban": 3738,
      "Ġgenerally": 3739,
      "Ġsold": 3740,
      "ĠRuss": 3741,
      "Ġthird": 3742,
      "Ġlimit": 3743,
      "Have": 3744,
      "ĠChina": 3745,
      "Ġwon": 3746,
      "Ġpurpose": 3747,
      "Ġatmosp": 3748,
      "Ġadults": 3749,
      "Ð¸": 3750,
      "Ġmut": 3751,
      "ether": 3752,
      "ornia": 3753,
      "Ġschol": 3754,
      "Ġintric": 3755,
      "oe": 3756,
      "Ġadvanced": 3757,
      "Ġdirectly": 3758,
      "ĠRed": 3759,
      "Ġpric": 3760,
      "Ġhabit": 3761,
      "Ġauthors": 3762,
      "Ġeat": 3763,
      "Ġmarketing": 3764,
      "Ġprivate": 3765,
      "Ġreceive": 3766,
      "Ġ2011": 3767,
      "Ġvirus": 3768,
      "Ġtrack": 3769,
      "Ġscreen": 3770,
      "Ġapprox": 3771,
      "Ġwonder": 3772,
      "being": 3773,
      "Ġcapac": 3774,
      "Ġhelped": 3775,
      "Ġintellig": 3776,
      "unch": 3777,
      "Ġlayer": 3778,
      "oly": 3779,
      "Ġserious": 3780,
      "Ġbenefit": 3781,
      "Ġeffort": 3782,
      "rition": 3783,
      "()": 3784,
      "Ġder": 3785,
      "ĠProg": 3786,
      "Ġrecommend": 3787,
      "ĠGree": 3788,
      "Ġclin": 3789,
      "Ġnarratives": 3790,
      "Ġcollection": 3791,
      "cipl": 3792,
      "ĠGo": 3793,
      "mission": 3794,
      "ira": 3795,
      "Ġproperty": 3796,
      "Ġextreme": 3797,
      "Ġdry": 3798,
      "ifying": 3799,
      "Ġfaith": 3800,
      "cles": 3801,
      "Ġbeliefs": 3802,
      "Ġweb": 3803,
      "Ġpoor": 3804,
      "iance": 3805,
      "Ġoperations": 3806,
      "ĠOther": 3807,
      "uff": 3808,
      "Ġadvoc": 3809,
      "Ġhimself": 3810,
      "Ġanx": 3811,
      "ĠWest": 3812,
      "Ġprop": 3813,
      "Ġcapital": 3814,
      "Ġ/": 3815,
      "Ġbodies": 3816,
      "ĠDepartment": 3817,
      "Ġincorporating": 3818,
      "à¸": 3819,
      "water": 3820,
      "ĠEven": 3821,
      "Ġexch": 3822,
      "arian": 3823,
      "Ġreceived": 3824,
      "att": 3825,
      "formation": 3826,
      "Ġorganization": 3827,
      "Ġfindings": 3828,
      "Ġsurpr": 3829,
      "pan": 3830,
      "ĠGreat": 3831,
      "ĠIndian": 3832,
      "ded": 3833,
      "python": 3834,
      "Ġdiseases": 3835,
      "iable": 3836,
      "Ġconstant": 3837,
      "iber": 3838,
      "itch": 3839,
      "Ġreality": 3840,
      "Ġprint": 3841,
      "Ġplayed": 3842,
      "ĠPol": 3843,
      "Ġpurch": 3844,
      "fficient": 3845,
      "Bob": 3846,
      "Ġfacilit": 3847,
      "Ġexposure": 3848,
      "Ġacqu": 3849,
      "ĠCourse": 3850,
      "estic": 3851,
      "Ġsituations": 3852,
      "Ġteaching": 3853,
      "Ġremind": 3854,
      "ilience": 3855,
      "Ġvict": 3856,
      "Ġseeking": 3857,
      "Ġaccurate": 3858,
      "Ġopportunity": 3859,
      "IS": 3860,
      "Ġdescript": 3861,
      "Ġhighlight": 3862,
      "ĠCur": 3863,
      "Ġ2010": 3864,
      "Int": 3865,
      "ĠAre": 3866,
      "Ġtrain": 3867,
      "idden": 3868,
      "Ġconcent": 3869,
      "Ġsmooth": 3870,
      "Ġexamine": 3871,
      "ula": 3872,
      "Ġlanguages": 3873,
      "Ġupd": 3874,
      "book": 3875,
      "Ġcontroll": 3876,
      "Ġcustomer": 3877,
      "ĠWrite": 3878,
      "Ġworldwide": 3879,
      "Ġreduced": 3880,
      "Ġbirth": 3881,
      "Ġsevere": 3882,
      "Ġcoast": 3883,
      "Ġmob": 3884,
      "AN": 3885,
      "Ġprobably": 3886,
      "Ġexamining": 3887,
      "Ġsolid": 3888,
      "ĠCalifornia": 3889,
      "odes": 3890,
      "Ġhous": 3891,
      "140": 3892,
      "Ġcontains": 3893,
      "pected": 3894,
      "olved": 3895,
      "ĠAccording": 3896,
      "Ġstandards": 3897,
      "ĠIndia": 3898,
      "Ġpossess": 3899,
      "itage": 3900,
      "Ġrepresents": 3901,
      "Ġapply": 3902,
      "Ġprepar": 3903,
      "Ġju": 3904,
      "Ġalone": 3905,
      "Ġdetect": 3906,
      "na": 3907,
      "Ġdevice": 3908,
      "wards": 3909,
      "Ġdelic": 3910,
      "Ġ126": 3911,
      "Ġstudying": 3912,
      "Ġqual": 3913,
      "Ġhighly": 3914,
      "ĠJan": 3915,
      "Ġgather": 3916,
      "ibilities": 3917,
      "Ġmaxim": 3918,
      "onic": 3919,
      "Ġimproved": 3920,
      "Ġsounds": 3921,
      "ĠDon": 3922,
      "Ġfigure": 3923,
      "Ġcou": 3924,
      "Ġmonth": 3925,
      "Ġsolar": 3926,
      "Ġfields": 3927,
      "Ġemail": 3928,
      "ĠHistory": 3929,
      "itutions": 3930,
      "Ġmanage": 3931,
      "rix": 3932,
      "Ġexhib": 3933,
      "Ġongoing": 3934,
      "Ġjustice": 3935,
      "force": 3936,
      "Ġrepl": 3937,
      "Ġleaves": 3938,
      "Ġevolution": 3939,
      "Ġlocated": 3940,
      "ech": 3941,
      "Ġbond": 3942,
      "eed": 3943,
      "Ġrock": 3944,
      "aid": 3945,
      "Ġten": 3946,
      "Ġcommer": 3947,
      "Ġpassed": 3948,
      "Ġinterests": 3949,
      "888": 3950,
      "Ġweeks": 3951,
      "ĠDo": 3952,
      "Ġsites": 3953,
      "ĠWho": 3954,
      "ĠThen": 3955,
      "ĠAmericans": 3956,
      "Ġvast": 3957,
      "Ġpopulations": 3958,
      "Ġbecoming": 3959,
      "Ġspeed": 3960,
      "ha": 3961,
      "Ġequal": 3962,
      "exic": 3963,
      "Ġstage": 3964,
      "amin": 3965,
      "ĠSw": 3966,
      "Ġox": 3967,
      "lim": 3968,
      "Ġbud": 3969,
      "iding": 3970,
      "Ġworkers": 3971,
      "Ġinterpret": 3972,
      "Ġmid": 3973,
      "Ġtesting": 3974,
      "Ġfundam": 3975,
      "Ġchanging": 3976,
      "istry": 3977,
      "rupt": 3978,
      "Ġattract": 3979,
      "Ġtold": 3980,
      "Ġdecre": 3981,
      "ĠInstead": 3982,
      "ords": 3983,
      "Ġeconomy": 3984,
      "sect": 3985,
      "Ġcustomers": 3986,
      "ĠAfrica": 3987,
      "Ġresource": 3988,
      "Ġinnovative": 3989,
      "lev": 3990,
      "Ġden": 3991,
      "ĠJewish": 3992,
      "Ġworked": 3993,
      "sec": 3994,
      "Ġsupply": 3995,
      "Ġstream": 3996,
      "icip": 3997,
      "\",": 3998,
      "alt": 3999,
      "Ġconsistent": 4000,
      "Ġresulting": 4001,
      "Ġtiss": 4002,
      "Ġattack": 4003,
      "Ġtail": 4004,
      "eter": 4005,
      "Ġdistribution": 4006,
      "airs": 4007,
      "iety": 4008,
      "Ġready": 4009,
      "rief": 4010,
      "Ġcitizens": 4011,
      "Ġtests": 4012,
      "Ġseems": 4013,
      "edom": 4014,
      "Ġbehavi": 4015,
      "Ġexperienced": 4016,
      "Ġwat": 4017,
      "Ġstop": 4018,
      "Another": 4019,
      "Ġplatforms": 4020,
      "Ġmessage": 4021,
      "Ġcultiv": 4022,
      "ashington": 4023,
      "Ġsexual": 4024,
      "Re": 4025,
      "Ġhttp": 4026,
      "raft": 4027,
      "Ġord": 4028,
      "Ġanyone": 4029,
      "ĠSar": 4030,
      "Ġcarefully": 4031,
      "Ġcollaboration": 4032,
      "ffect": 4033,
      "ternal": 4034,
      "Ġ24": 4035,
      "Ġalthough": 4036,
      "Ġmovements": 4037,
      "year": 4038,
      "Ġcooking": 4039,
      "ĠAnt": 4040,
      "Ġresilience": 4041,
      "Ġball": 4042,
      "ĠAug": 4043,
      "Ġfollowed": 4044,
      "Ġrunning": 4045,
      "ightly": 4046,
      "ball": 4047,
      "era": 4048,
      "Ġroles": 4049,
      "iant": 4050,
      "Ġhar": 4051,
      "cast": 4052,
      "Ġinvolving": 4053,
      "Ġregions": 4054,
      "Ġprofessionals": 4055,
      "bl": 4056,
      "www": 4057,
      "undred": 4058,
      "Ġlandscape": 4059,
      "Ġphen": 4060,
      "ĠCity": 4061,
      "Ġmiddle": 4062,
      "ĠInternational": 4063,
      "Ġexpert": 4064,
      "Ġaudience": 4065,
      "Ġinteg": 4066,
      "Ġsummer": 4067,
      "Ġtour": 4068,
      "Ġeating": 4069,
      "otic": 4070,
      "Ġstrength": 4071,
      "usive": 4072,
      "igr": 4073,
      "Ġexperiment": 4074,
      "Ġobtain": 4075,
      "asp": 4076,
      "Ġnothing": 4077,
      "uting": 4078,
      "Ġsolution": 4079,
      "ask": 4080,
      "Ġenvironments": 4081,
      "Ġturned": 4082,
      "Ġsatis": 4083,
      "Ġtow": 4084,
      "Ġallowed": 4085,
      "Ġfully": 4086,
      "Ġleave": 4087,
      "Ġnucle": 4088,
      "ĠChild": 4089,
      "aur": 4090,
      "Ġefficiency": 4091,
      "Alice": 4092,
      "Ġengagement": 4093,
      "Ġperhaps": 4094,
      "co": 4095,
      "Ġurban": 4096,
      "ĠAlex": 4097,
      "Ġrise": 4098,
      "ĠSam": 4099,
      "Ġgold": 4100,
      "ĠHave": 4101,
      "Ġoffering": 4102,
      "Ġexpression": 4103,
      "ĠBar": 4104,
      "Ġdiversity": 4105,
      "Ġsugar": 4106,
      "ĠId": 4107,
      "Ġbeginning": 4108,
      "Ġbact": 4109,
      "Ġgir": 4110,
      "Ġfederal": 4111,
      "Ġpicture": 4112,
      "Ġmoving": 4113,
      "gy": 4114,
      "Ġaddressing": 4115,
      "Ġclearly": 4116,
      "hab": 4117,
      "Ġplans": 4118,
      "Ġconsequences": 4119,
      "Ġweak": 4120,
      "Ġtim": 4121,
      "Ġbott": 4122,
      "known": 4123,
      "akers": 4124,
      "ĠRel": 4125,
      "Ġshall": 4126,
      "ius": 4127,
      "ibly": 4128,
      "ĠChar": 4129,
      "ĠPeople": 4130,
      "Ġstarting": 4131,
      "ĠLear": 4132,
      "Ġolder": 4133,
      "Ġamazing": 4134,
      "ster": 4135,
      "ĠInstitute": 4136,
      "Ġ2008": 4137,
      "Ġbad": 4138,
      "Ġrenew": 4139,
      "Ġcities": 4140,
      "Ġlibrary": 4141,
      "rote": 4142,
      "Ġsave": 4143,
      "Ġaffected": 4144,
      "Ġhosp": 4145,
      "ĠMexic": 4146,
      "Ġourselves": 4147,
      "Ġmotiv": 4148,
      "ĠSte": 4149,
      "With": 4150,
      "Ġdecl": 4151,
      "Ġvacc": 4152,
      "ĠJour": 4153,
      "ressive": 4154,
      "Ġbox": 4155,
      "Ġproperties": 4156,
      "Ġnavigate": 4157,
      "ĠAssoci": 4158,
      "uary": 4159,
      "Ġ2009": 4160,
      "pped": 4161,
      "Ġrecently": 4162,
      "Ġspiritual": 4163,
      "making": 4164,
      "rep": 4165,
      "Ġmiss": 4166,
      "Ġprotein": 4167,
      "Ġdead": 4168,
      "OR": 4169,
      "ama": 4170,
      "Ġbelong": 4171,
      "Ġgoes": 4172,
      "agon": 4173,
      "Ġmember": 4174,
      "Ġrealized": 4175,
      "Ġcounter": 4176,
      "Ġgiving": 4177,
      "Ġbul": 4178,
      "ructure": 4179,
      "Ġcand": 4180,
      "PA": 4181,
      "Ġmonit": 4182,
      "Ġfocused": 4183,
      "Ġphilosoph": 4184,
      "antic": 4185,
      "Ġgenerate": 4186,
      "Ġadventure": 4187,
      "ĠPat": 4188,
      "eries": 4189,
      "Ġfiction": 4190,
      "Ġvary": 4191,
      "ecause": 4192,
      "Ġrequirements": 4193,
      "ĠHigh": 4194,
      "Ġenter": 4195,
      "Ġconstruction": 4196,
      "ogue": 4197,
      "Ġpreserv": 4198,
      "Ġthousands": 4199,
      "ĠDav": 4200,
      "Ġworth": 4201,
      "Ġnearly": 4202,
      "IC": 4203,
      "outhern": 4204,
      "Ġwasn": 4205,
      "Ġreveal": 4206,
      "urance": 4207,
      "etry": 4208,
      "Ġcreation": 4209,
      "Ġ40": 4210,
      "!\"": 4211,
      "ĠMost": 4212,
      "Ġcausing": 4213,
      "Ġwoman": 4214,
      "Ġsong": 4215,
      "Ġpet": 4216,
      "ourage": 4217,
      "rops": 4218,
      "ometimes": 4219,
      "Ġcreativity": 4220,
      "Ġenab": 4221,
      "cking": 4222,
      "ĠDef": 4223,
      "Ġadding": 4224,
      "Ġappreciation": 4225,
      "Ġtechnique": 4226,
      "house": 4227,
      "70": 4228,
      "Ġmaybe": 4229,
      "Ġrain": 4230,
      "encing": 4231,
      "ĠCong": 4232,
      "Ġsports": 4233,
      "ĠCanada": 4234,
      "ĠJes": 4235,
      "Ġresistance": 4236,
      "ris": 4237,
      "ĠWelcome": 4238,
      "ham": 4239,
      "Ġmolec": 4240,
      "Ġassum": 4241,
      "Ġhappens": 4242,
      "ĠConsider": 4243,
      "ĠWashington": 4244,
      "ĠOf": 4245,
      "Ġeasier": 4246,
      "ĠSimilarly": 4247,
      "Ġstrategy": 4248,
      "Ġchoices": 4249,
      "ented": 4250,
      "Ġcontract": 4251,
      "Ġprice": 4252,
      "Ġeventually": 4253,
      "Ġvoc": 4254,
      "Ġforeign": 4255,
      "Ġ2013": 4256,
      "Ġinformed": 4257,
      "yle": 4258,
      "load": 4259,
      "Ġprecise": 4260,
      "199": 4261,
      "ĠEducation": 4262,
      "32": 4263,
      "ameter": 4264,
      "Ġuseful": 4265,
      "Ġhom": 4266,
      "icated": 4267,
      "Ġnote": 4268,
      "ĠOct": 4269,
      "Ġmiles": 4270,
      "Ġfoster": 4271,
      "ensity": 4272,
      "Ġcoming": 4273,
      "ĠRiver": 4274,
      "Ġsac": 4275,
      "iosity": 4276,
      "Ġborn": 4277,
      "ĠMc": 4278,
      "orial": 4279,
      "Ġmission": 4280,
      "Ġroot": 4281,
      "Ġdepending": 4282,
      "ĠGerman": 4283,
      "....": 4284,
      "Ñģ": 4285,
      "Ġstatus": 4286,
      "pril": 4287,
      "gment": 4288,
      "Ġcontinues": 4289,
      "nam": 4290,
      "Ġcouldn": 4291,
      "Ad": 4292,
      "ĠPress": 4293,
      "Ġillness": 4294,
      "Ġtrib": 4295,
      "ĠSur": 4296,
      "Ġincredible": 4297,
      "Ġteacher": 4298,
      "Ġcogn": 4299,
      "pass": 4300,
      "ĠVir": 4301,
      "inese": 4302,
      "off": 4303,
      "Ġwis": 4304,
      "orage": 4305,
      "Ġhundred": 4306,
      "Ġreasons": 4307,
      "ares": 4308,
      "Ġbeauty": 4309,
      "ev": 4310,
      "Ġloved": 4311,
      "Ġapproximately": 4312,
      "28": 4313,
      "Ġbirds": 4314,
      "Ġultimately": 4315,
      "ĠEngland": 4316,
      "Ġworry": 4317,
      "ĠTitle": 4318,
      "Ġexpected": 4319,
      "raw": 4320,
      "Ġtrends": 4321,
      "Ġdistance": 4322,
      "Ġinstitutions": 4323,
      "abetes": 4324,
      "ulating": 4325,
      "ĠMarch": 4326,
      "ĠPython": 4327,
      "ara": 4328,
      "ĠIts": 4329,
      "ey": 4330,
      "uk": 4331,
      "ixt": 4332,
      "see": 4333,
      "Ġrare": 4334,
      "Ġmentioned": 4335,
      "Ġconnected": 4336,
      "These": 4337,
      "edia": 4338,
      "ensions": 4339,
      "Ġprimarily": 4340,
      "Ġcold": 4341,
      "ĠStage": 4342,
      "Ġassign": 4343,
      "gn": 4344,
      "ĠVal": 4345,
      "Ġbroader": 4346,
      "Ġfather": 4347,
      "Ġbuy": 4348,
      "ogether": 4349,
      "Ġsav": 4350,
      "Ġexcess": 4351,
      "Ġsettings": 4352,
      "Ġsigns": 4353,
      "Ġrace": 4354,
      "Ġcapacity": 4355,
      "Ġglass": 4356,
      "Ġnetworks": 4357,
      "Ġcircum": 4358,
      "Ġunf": 4359,
      "Ġelectr": 4360,
      "Ġcourt": 4361,
      "icing": 4362,
      "ĠGovern": 4363,
      "Ġmeeting": 4364,
      "Ġclosely": 4365,
      "oses": 4366,
      "Ġincome": 4367,
      "Ġesc": 4368,
      "ĠWilliam": 4369,
      "Ġcommand": 4370,
      "Ġdepend": 4371,
      "Ġgenetic": 4372,
      "aul": 4373,
      "Ġvill": 4374,
      "Ġmedicine": 4375,
      "ĠChurch": 4376,
      "appy": 4377,
      "Ġencourage": 4378,
      "atur": 4379,
      "ĠDec": 4380,
      "Ġframew": 4381,
      "Ġwrong": 4382,
      "While": 4383,
      "Ġkeeping": 4384,
      "omic": 4385,
      "osystem": 4386,
      "ĠEnviron": 4387,
      "ĠPark": 4388,
      "ĠĠĠĠĠĠĠĠ": 4389,
      "iration": 4390,
      "Ġrepe": 4391,
      "Ġleaving": 4392,
      "Ġempathy": 4393,
      "ero": 4394,
      "Ġrecords": 4395,
      "Ġhyp": 4396,
      "ĠSoci": 4397,
      "ĠUsing": 4398,
      "Ġfigures": 4399,
      "Ġsuppl": 4400,
      "ĠIntroduction": 4401,
      "Ġsess": 4402,
      "Ġnames": 4403,
      "AC": 4404,
      "ĠRet": 4405,
      "Ġblue": 4406,
      "Ġinstructions": 4407,
      "can": 4408,
      "Ġgar": 4409,
      "ny": 4410,
      "Ġhol": 4411,
      "Ġflex": 4412,
      "Ġacademic": 4413,
      "Ġcontrast": 4414,
      "ceed": 4415,
      "Ġversion": 4416,
      "Ġformed": 4417,
      "Ġfilm": 4418,
      "Ð¾Ð": 4419,
      "Ġunex": 4420,
      "Ġcommercial": 4421,
      "board": 4422,
      "Ġchoice": 4423,
      "Ġphenomen": 4424,
      "Ġlooked": 4425,
      "Ġplot": 4426,
      "que": 4427,
      "Ġimproving": 4428,
      "Ġformer": 4429,
      "Ġcomprehensive": 4430,
      "Ġinstruction": 4431,
      "Ġcareer": 4432,
      "ĠJune": 4433,
      "Ġensures": 4434,
      "ĠMr": 4435,
      "Ġprocessing": 4436,
      "ups": 4437,
      "ĠPresident": 4438,
      "Ġfrequently": 4439,
      "Ġcapable": 4440,
      "Ġfundamental": 4441,
      "EN": 4442,
      "Ġenable": 4443,
      "Ġrule": 4444,
      "ĠMat": 4445,
      "cil": 4446,
      "Ġbow": 4447,
      "ĠPract": 4448,
      "ingly": 4449,
      "Ġsecure": 4450,
      "Ġreligion": 4451,
      "key": 4452,
      "Ġsocietal": 4453,
      "ographic": 4454,
      "bra": 4455,
      "Ġgets": 4456,
      "ĠMark": 4457,
      "Ġur": 4458,
      "Ġknows": 4459,
      "Ġhomes": 4460,
      "orthern": 4461,
      "Ġopin": 4462,
      "ias": 4463,
      "ĠDisc": 4464,
      "Ġhappened": 4465,
      "Ġdiscussions": 4466,
      "Ġtransportation": 4467,
      "Ġlargest": 4468,
      "Ġoccup": 4469,
      "Ġmel": 4470,
      "rael": 4471,
      "Ġpen": 4472,
      "ĠSocial": 4473,
      "Ġsou": 4474,
      "Ġdescribed": 4475,
      "Ġmilk": 4476,
      "ĠChinese": 4477,
      "hetic": 4478,
      "ĠSan": 4479,
      "ĠCor": 4480,
      "ĠOb": 4481,
      "Ġaimed": 4482,
      "ED": 4483,
      "Ġwrote": 4484,
      "Ġvoice": 4485,
      "Ġexploration": 4486,
      "ĠAv": 4487,
      "oyal": 4488,
      "Ġguidelines": 4489,
      "Ġimpacts": 4490,
      "ĠBra": 4491,
      "ĠSept": 4492,
      "Ġchance": 4493,
      "Ġdiscussion": 4494,
      "Ġinnovation": 4495,
      "ĠCO": 4496,
      "ologists": 4497,
      "Ġengineering": 4498,
      "Ġtiny": 4499,
      "Ġdate": 4500,
      "ĠKeep": 4501,
      "hent": 4502,
      "ĠProt": 4503,
      "ĠCreate": 4504,
      "mitted": 4505,
      "anish": 4506,
      "Ġfix": 4507,
      "Ġboard": 4508,
      "Ġtruly": 4509,
      "rees": 4510,
      "aint": 4511,
      "rows": 4512,
      "ĠThink": 4513,
      "Ġpresence": 4514,
      "Ġ2007": 4515,
      "Ġcup": 4516,
      "Ġscenar": 4517,
      "First": 4518,
      "Ġarray": 4519,
      "Ġpoly": 4520,
      "orical": 4521,
      "asion": 4522,
      "volution": 4523,
      "Ġblock": 4524,
      "Ġbelieved": 4525,
      "Ġconflict": 4526,
      "Ġbeg": 4527,
      "Ġconsumption": 4528,
      "Ġhair": 4529,
      "omb": 4530,
      "Ġcompar": 4531,
      "Ġserved": 4532,
      "udd": 4533,
      "Ġbranch": 4534,
      "oke": 4535,
      "Ġserves": 4536,
      "Ġprefer": 4537,
      "Ġspent": 4538,
      "Ġhidden": 4539,
      "irection": 4540,
      "Ġexcell": 4541,
      "Ġelement": 4542,
      "Ġvegetables": 4543,
      "Ġnorth": 4544,
      "Ġtruth": 4545,
      "Ġchanged": 4546,
      "ager": 4547,
      "Ġdram": 4548,
      "Ġcloser": 4549,
      "ĠJesus": 4550,
      "Ġatmosphere": 4551,
      "Ġcenturies": 4552,
      "iverse": 4553,
      "Ġcompletely": 4554,
      "Ġinfect": 4555,
      "Ġtips": 4556,
      "Ġspaces": 4557,
      "Ġsymbol": 4558,
      "Ġpros": 4559,
      "Ġhappen": 4560,
      "Ġseparate": 4561,
      "ĠAugust": 4562,
      "Ġsalt": 4563,
      "Ġresponsibility": 4564,
      "Ġbarri": 4565,
      "Ġaren": 4566,
      "ĠWhy": 4567,
      "Ġcharacteristics": 4568,
      "22": 4569,
      "Ġdivid": 4570,
      "Ġsouth": 4571,
      "Ġheavy": 4572,
      "Ġvit": 4573,
      "ĠAss": 4574,
      "Here": 4575,
      "Ġtexts": 4576,
      "Ġvision": 4577,
      "alle": 4578,
      "40": 4579,
      "Ġdisorders": 4580,
      "ĠLaw": 4581,
      "Ġintricate": 4582,
      "Ġmere": 4583,
      "ean": 4584,
      "Ġvibr": 4585,
      "Ġanxiety": 4586,
      "Ġconvent": 4587,
      "Ġdynamics": 4588,
      "Ġpassion": 4589,
      "60": 4590,
      "ica": 4591,
      "uilding": 4592,
      "ndom": 4593,
      "iling": 4594,
      "Before": 4595,
      "ĠCult": 4596,
      "ĠOff": 4597,
      "Ġinfection": 4598,
      "Ġbrand": 4599,
      "Ġking": 4600,
      "Ġsets": 4601,
      "Ġfemale": 4602,
      "Ġearn": 4603,
      "Ġalign": 4604,
      "opping": 4605,
      "Ġseek": 4606,
      "Ġfamiliar": 4607,
      "igration": 4608,
      "Ġcollege": 4609,
      "enty": 4610,
      "Ġtransfer": 4611,
      "Ġacid": 4612,
      "ĠMake": 4613,
      "Ġconservation": 4614,
      "Ġleads": 4615,
      "ĠMedic": 4616,
      "Ġguidance": 4617,
      "Ġrelease": 4618,
      "==": 4619,
      "Ġunc": 4620,
      "rative": 4621,
      "Ġmap": 4622,
      "ĠRead": 4623,
      "Ġvul": 4624,
      "Ġobst": 4625,
      "Ġspect": 4626,
      "Ġapart": 4627,
      "Ġabsor": 4628,
      "Ġunivers": 4629,
      "coh": 4630,
      "ĠJuly": 4631,
      "Ġemissions": 4632,
      "ĠTy": 4633,
      "Ġpresented": 4634,
      "Un": 4635,
      "rab": 4636,
      "Ġplaced": 4637,
      "Ġrecognize": 4638,
      "Ġson": 4639,
      "Ġpush": 4640,
      "Ġparty": 4641,
      "Ġsecret": 4642,
      "ĠProf": 4643,
      "Ġsand": 4644,
      "ĠConst": 4645,
      "Ġvirtual": 4646,
      "Â°": 4647,
      "Ġtherefore": 4648,
      "Ġmanaging": 4649,
      "ĠBlack": 4650,
      "Ġcoord": 4651,
      "Ġque": 4652,
      "âĢ¢": 4653,
      "Ġanswers": 4654,
      "ĠApril": 4655,
      "Des": 4656,
      "Ġroll": 4657,
      "alk": 4658,
      "enses": 4659,
      "gery": 4660,
      "brid": 4661,
      "Ġgives": 4662,
      "bal": 4663,
      "aph": 4664,
      "Ġwinter": 4665,
      "acing": 4666,
      "itis": 4667,
      "ux": 4668,
      "Ġbuildings": 4669,
      "Ġ\\": 4670,
      "icians": 4671,
      "Ġocean": 4672,
      "Ġload": 4673,
      "Ġdeal": 4674,
      "Ġrein": 4675,
      "Ġecosystem": 4676,
      "Ġterrit": 4677,
      "Ġinternal": 4678,
      "Ġ...": 4679,
      "Ġapplied": 4680,
      "respond": 4681,
      "ĠGreen": 4682,
      "ĠFam": 4683,
      "ĠLat": 4684,
      "Ġcomplexity": 4685,
      "ificial": 4686,
      "ĠWestern": 4687,
      "IT": 4688,
      "Ġpick": 4689,
      "mary": 4690,
      "Ġcuriosity": 4691,
      "Ġcomputers": 4692,
      "However": 4693,
      "ĠRoman": 4694,
      "Ġsmart": 4695,
      "ellect": 4696,
      "ĠSince": 4697,
      "Ġboundaries": 4698,
      "ĠSet": 4699,
      "Ġfreedom": 4700,
      "Ġdrawing": 4701,
      "Ġfinally": 4702,
      "ĠIdent": 4703,
      "ocol": 4704,
      "Ġgrand": 4705,
      "Ġchann": 4706,
      "oty": 4707,
      "men": 4708,
      "Ġintelligence": 4709,
      "ĠVol": 4710,
      "Ġhop": 4711,
      "Ġsuggests": 4712,
      "ishing": 4713,
      "ĠBoth": 4714,
      "uing": 4715,
      "lin": 4716,
      "ÃŃ": 4717,
      "Ġstorage": 4718,
      "herent": 4719,
      "ipped": 4720,
      "osen": 4721,
      "Ġdedicated": 4722,
      "Ġregional": 4723,
      "Ġretur": 4724,
      "Ġfine": 4725,
      "craft": 4726,
      "ĠSarah": 4727,
      "',": 4728,
      "Ġmist": 4729,
      "iff": 4730,
      "Ġindigenous": 4731,
      "Ġdrugs": 4732,
      "ocrat": 4733,
      "Ġabilities": 4734,
      "Ġoccurs": 4735,
      "orge": 4736,
      "Ġextract": 4737,
      "leg": 4738,
      "ĠIsrael": 4739,
      "rogen": 4740,
      "ception": 4741,
      "cember": 4742,
      "ht": 4743,
      "Ġprepared": 4744,
      "othes": 4745,
      "Ġactual": 4746,
      "ouncil": 4747,
      "Ġshowed": 4748,
      "ĠDesign": 4749,
      "Introduction": 4750,
      "iments": 4751,
      "Ġfruit": 4752,
      "Ġtransl": 4753,
      "Ġlies": 4754,
      "inations": 4755,
      "Ġparticipants": 4756,
      "Ġpu": 4757,
      "ĠDay": 4758,
      "Ġnative": 4759,
      "Ġscale": 4760,
      "Ġimplications": 4761,
      "ĠThom": 4762,
      "Ġbillion": 4763,
      "Ġfeedback": 4764,
      "order": 4765,
      "ĠPlan": 4766,
      "Ġstaff": 4767,
      "rastructure": 4768,
      "Ġoffice": 4769,
      "Ġanalyze": 4770,
      "gu": 4771,
      "Ð½": 4772,
      "iled": 4773,
      "Ġ21": 4774,
      "road": 4775,
      "rick": 4776,
      "'m": 4777,
      "Ġeast": 4778,
      "Ġliqu": 4779,
      "Ġinteractions": 4780,
      "Ġgained": 4781,
      "Ġisol": 4782,
      "orough": 4783,
      "crib": 4784,
      "rics": 4785,
      "ĠIslam": 4786,
      "Ġperspective": 4787,
      "Ġtraffic": 4788,
      "Ġremark": 4789,
      "Ġreports": 4790,
      "Ġnp": 4791,
      "Ġmechanisms": 4792,
      "unction": 4793,
      "Ġexciting": 4794,
      "Ġtemperatures": 4795,
      "Ġhear": 4796,
      "Ġbehaviors": 4797,
      "ÑĢ": 4798,
      "Ġgeneration": 4799,
      "Ġscholars": 4800,
      "ĠBo": 4801,
      "ĠCounty": 4802,
      "Ġpul": 4803,
      "emy": 4804,
      "Ġexperts": 4805,
      "ĠFrance": 4806,
      "gypt": 4807,
      "Ġkn": 4808,
      "fl": 4809,
      "Ġsequence": 4810,
      "tion": 4811,
      "---": 4812,
      "sequently": 4813,
      "ĠAng": 4814,
      "son": 4815,
      "Ġheight": 4816,
      "Ġvulner": 4817,
      "Ġgave": 4818,
      "Ġcloth": 4819,
      "After": 4820,
      "ses": 4821,
      "Ġanti": 4822,
      "Ġtrou": 4823,
      "ĠThus": 4824,
      "Ph": 4825,
      "ĠSee": 4826,
      "while": 4827,
      "Ġcreatures": 4828,
      "za": 4829,
      "eline": 4830,
      "Through": 4831,
      "related": 4832,
      "Ġdegree": 4833,
      "ĠBi": 4834,
      "unte": 4835,
      "Ġunexpected": 4836,
      "Ġmedium": 4837,
      "Ġletter": 4838,
      "Ġheritage": 4839,
      "Ġstronger": 4840,
      "Ġplayers": 4841,
      "Ã¡": 4842,
      "ĠMic": 4843,
      "ĠHappy": 4844,
      "Ġnutri": 4845,
      "Ġthick": 4846,
      "Ġmit": 4847,
      "Pro": 4848,
      "Ġappears": 4849,
      "Ġpotentially": 4850,
      "semb": 4851,
      "ste": 4852,
      "ressed": 4853,
      "Ġintroduced": 4854,
      "Ġshif": 4855,
      "ĠMix": 4856,
      "Ġscal": 4857,
      "Ġbasis": 4858,
      "ĠHouse": 4859,
      "Ġcommunicate": 4860,
      "Ġpaint": 4861,
      "Ġmeaningful": 4862,
      "Ne": 4863,
      "mod": 4864,
      "ĠArch": 4865,
      "Ġcast": 4866,
      "hest": 4867,
      "ĠDespite": 4868,
      "Ġdesigns": 4869,
      "Ġpattern": 4870,
      "Ġdied": 4871,
      "Ġdirection": 4872,
      "ĠEnc": 4873,
      "Ġremove": 4874,
      "ovember": 4875,
      "Ġconfig": 4876,
      "ĠFeb": 4877,
      "Ġahead": 4878,
      "Ġenables": 4879,
      "Ġbed": 4880,
      "pen": 4881,
      "21": 4882,
      "Ġfant": 4883,
      "Ġdesired": 4884,
      "cest": 4885,
      "ĠEvery": 4886,
      "Ġamid": 4887,
      "cop": 4888,
      "Ġwit": 4889,
      "Ġknowing": 4890,
      "ĠWeb": 4891,
      "Ġjournal": 4892,
      "Ġspot": 4893,
      "Ġpregn": 4894,
      "Ġidentified": 4895,
      "Ġdiscussing": 4896,
      "Finally": 4897,
      "Ġmatrix": 4898,
      "Ġimmediately": 4899,
      "gal": 4900,
      "ams": 4901,
      "tery": 4902,
      "ĠProv": 4903,
      "pping": 4904,
      "apes": 4905,
      "Ġnutrition": 4906,
      "ĠUp": 4907,
      "Ġviolence": 4908,
      "ibl": 4909,
      "po": 4910,
      "Ġfactor": 4911,
      "rich": 4912,
      "Ġbaby": 4913,
      "Ġtask": 4914,
      "Ġcorrespond": 4915,
      "Ġbudget": 4916,
      "inent": 4917,
      "Ġmulti": 4918,
      "ĠBr": 4919,
      "ĠAssociation": 4920,
      "Ġdrive": 4921,
      "AL": 4922,
      "nic": 4923,
      "col": 4924,
      "Ġexplained": 4925,
      "Ġvalid": 4926,
      "ville": 4927,
      "Ġsupporting": 4928,
      "asure": 4929,
      "Ġparties": 4930,
      "ĠLife": 4931,
      "Ġaid": 4932,
      "ĠSometimes": 4933,
      "Ġseemed": 4934,
      "Ġmessages": 4935,
      "Ġbreast": 4936,
      "Ġcognitive": 4937,
      "Ġprices": 4938,
      "Ġcurrently": 4939,
      "Ġtalking": 4940,
      "Ġmo": 4941,
      "Ġmonitoring": 4942,
      "ĠPublic": 4943,
      "Ġprompt": 4944,
      "enth": 4945,
      "Ġconsid": 4946,
      "ĠFinally": 4947,
      "ĠJournal": 4948,
      "Ġobserved": 4949,
      "Ġcompl": 4950,
      "ĠMich": 4951,
      "Ġ195": 4952,
      "Ġphone": 4953,
      "Ġtaste": 4954,
      "Ġwealth": 4955,
      "ĠAI": 4956,
      "64": 4957,
      "ĠTim": 4958,
      "Ġinspired": 4959,
      "ĠOctober": 4960,
      "amm": 4961,
      "ĠUnion": 4962,
      "Ġstar": 4963,
      "Ġmeant": 4964,
      "ĠProgram": 4965,
      "ĠEgypt": 4966,
      "rate": 4967,
      "Ġexternal": 4968,
      "fulness": 4969,
      "Ġclasses": 4970,
      "Ġdestro": 4971,
      "ĠGermany": 4972,
      "Ġdisorder": 4973,
      "Ġriver": 4974,
      "Ġcircumst": 4975,
      "Ġperiods": 4976,
      "Ġacknow": 4977,
      "cont": 4978,
      "cers": 4979,
      "ĠCongress": 4980,
      "ondon": 4981,
      "Ġemployees": 4982,
      "aughter": 4983,
      "Ġstim": 4984,
      "Ġethical": 4985,
      "Ġcaptiv": 4986,
      "yd": 4987,
      "Ġdatab": 4988,
      "ĠSuch": 4989,
      "Ġfert": 4990,
      "Ġrot": 4991,
      "Ġauthent": 4992,
      "iest": 4993,
      "Ġmoved": 4994,
      "ĠSeptember": 4995,
      "ford": 4996,
      "ĠMiddle": 4997,
      "ĠAlso": 4998,
      "Ġ60": 4999,
      "Ġalongside": 5000,
      "24": 5001,
      "Ġcommonly": 5002,
      "Ġdefined": 5003,
      "Ġcollective": 5004,
      "Ġshowc": 5005,
      "Ġconsult": 5006,
      "Ġsales": 5007,
      "OU": 5008,
      "Ġinfrastructure": 5009,
      "ĠGreek": 5010,
      "Ġlegis": 5011,
      "Ġcraf": 5012,
      "Ġspeech": 5013,
      "ĠData": 5014,
      "Ġdeeply": 5015,
      "Ġsud": 5016,
      "apers": 5017,
      "Ġround": 5018,
      "Ġchurch": 5019,
      "Ġdiscovery": 5020,
      "23": 5021,
      "Ġhero": 5022,
      "ĠLa": 5023,
      "Ġowners": 5024,
      "Ġnearby": 5025,
      "OS": 5026,
      "Ġarrang": 5027,
      "ĠJapanese": 5028,
      "Ġdiabetes": 5029,
      "Ġgarden": 5030,
      "Ġmixed": 5031,
      "Ġstyles": 5032,
      "Ġpal": 5033,
      "Ġpreferences": 5034,
      "poses": 5035,
      "ube": 5036,
      "Ġdeliver": 5037,
      "Ġmal": 5038,
      "ĠAir": 5039,
      "ĠJanuary": 5040,
      "anted": 5041,
      "ĠSociety": 5042,
      "Ġcombining": 5043,
      "Ġemerging": 5044,
      "Ġple": 5045,
      "80": 5046,
      "Ġcreates": 5047,
      "Ġpolitics": 5048,
      "uses": 5049,
      "Ġrevolution": 5050,
      "ĠDNA": 5051,
      "ĠFound": 5052,
      "Ġdecades": 5053,
      "oving": 5054,
      "Ġpret": 5055,
      "ags": 5056,
      "Ġ2006": 5057,
      "Ġhit": 5058,
      "ollow": 5059,
      "ĠWater": 5060,
      "cohol": 5061,
      "Ġmouth": 5062,
      "Ġexchange": 5063,
      "Ġnotes": 5064,
      "Ġnations": 5065,
      "More": 5066,
      "ĠHuman": 5067,
      "Ġrepresentation": 5068,
      "Ġliterary": 5069,
      "Ġmetal": 5070,
      "Ġsudden": 5071,
      "Ġroots": 5072,
      "ĠCle": 5073,
      "Ġmast": 5074,
      "ĠJames": 5075,
      "Ġintellect": 5076,
      "unately": 5077,
      "des": 5078,
      "Ġmeat": 5079,
      "Ġhybrid": 5080,
      "Ġchick": 5081,
      "Ġshapes": 5082,
      "lege": 5083,
      "Ġslightly": 5084,
      "xic": 5085,
      "ĠAdapt": 5086,
      "Ġpun": 5087,
      "Ġattrib": 5088,
      "Ġindependent": 5089,
      "Ġcris": 5090,
      "Ar": 5091,
      "III": 5092,
      "Ġelectricity": 5093,
      "ĠJews": 5094,
      "That": 5095,
      "ĠDecember": 5096,
      "Ġnuclear": 5097,
      "Ġinitiatives": 5098,
      "esson": 5099,
      "fered": 5100,
      "Ġfoundation": 5101,
      "Ġtechnological": 5102,
      "Ġradiation": 5103,
      "Ġsignal": 5104,
      "Ġconducted": 5105,
      "lor": 5106,
      "Ġclinical": 5107,
      "Ġfing": 5108,
      "Ġshar": 5109,
      "ĠConf": 5110,
      "Ġpictures": 5111,
      "Ġpersist": 5112,
      "Ġwisdom": 5113,
      "Ġinterested": 5114,
      "Ġdefine": 5115,
      "Ġlesson": 5116,
      "Ġtried": 5117,
      "Ġrelax": 5118,
      "Ġhyper": 5119,
      "Ġfab": 5120,
      "ĠGeneral": 5121,
      "ĠOrgan": 5122,
      "Ġdri": 5123,
      "Ġemerged": 5124,
      "itors": 5125,
      "ado": 5126,
      "ĠDevelopment": 5127,
      "Ġreserv": 5128,
      "Ġhappy": 5129,
      "Ġaccurately": 5130,
      "Ġenabling": 5131,
      "Ġsem": 5132,
      "Ġindustrial": 5133,
      "Ġconv": 5134,
      "tenance": 5135,
      "ĠHIV": 5136,
      "Ġbacteria": 5137,
      "Ġmale": 5138,
      "Ġcoop": 5139,
      "Ġfarmers": 5140,
      "avors": 5141,
      "hus": 5142,
      "Ġ:": 5143,
      "gra": 5144,
      "Ġmillions": 5145,
      "Ġgovernments": 5146,
      "ida": 5147,
      "Ġunderlying": 5148,
      "Ġthorough": 5149,
      "DA": 5150,
      "Ġsky": 5151,
      "Ġfacing": 5152,
      "rum": 5153,
      "ĠFood": 5154,
      "Ġrandom": 5155,
      "Ġvent": 5156,
      "Ġtreatments": 5157,
      "Ġreached": 5158,
      "Ġwalk": 5159,
      "nes": 5160,
      "Ġeggs": 5161,
      "Ġcurious": 5162,
      "friend": 5163,
      "Ġencourages": 5164,
      "Ġdiscrim": 5165,
      "Ġregularly": 5166,
      "rors": 5167,
      "rapy": 5168,
      "Ġorganic": 5169,
      "Ġbottom": 5170,
      "Ġmatters": 5171,
      "ogen": 5172,
      "Ġremained": 5173,
      "Ġ,": 5174,
      "Ġsubjects": 5175,
      "Ġstraight": 5176,
      "ĠPal": 5177,
      "Ġdance": 5178,
      "icism": 5179,
      "Ġcomponent": 5180,
      "Ġoffered": 5181,
      "Ġexpectations": 5182,
      "LM": 5183,
      "kes": 5184,
      "Ġincreases": 5185,
      "Ġcopy": 5186,
      "Ġcombined": 5187,
      "Ġpark": 5188,
      "Ġ2000": 5189,
      "Ġminor": 5190,
      "Ġdialogue": 5191,
      "atically": 5192,
      "ĠAlice": 5193,
      "anges": 5194,
      "Ġtopic": 5195,
      "ĠMor": 5196,
      "Ġmer": 5197,
      "Ġmanip": 5198,
      "Ġformation": 5199,
      "assion": 5200,
      "Ġgoods": 5201,
      "Why": 5202,
      "ĠEmp": 5203,
      "Ġhunt": 5204,
      "SA": 5205,
      "Ġrapidly": 5206,
      "Ġrig": 5207,
      "Ġsaying": 5208,
      "ĠTur": 5209,
      "Ġgene": 5210,
      "Ġimmune": 5211,
      "Ġembracing": 5212,
      "))": 5213,
      "Ġlooks": 5214,
      "ultane": 5215,
      "Ġafford": 5216,
      "orous": 5217,
      "ĠMary": 5218,
      "Ġtrained": 5219,
      "ologist": 5220,
      "never": 5221,
      "ĠTex": 5222,
      "Ġmoments": 5223,
      "met": 5224,
      "ĠNovember": 5225,
      "Ġdiscipl": 5226,
      "Ġstring": 5227,
      "Ġnotice": 5228,
      "Ġcovered": 5229,
      "ĠSpanish": 5230,
      "iences": 5231,
      "uration": 5232,
      "Ġsnow": 5233,
      "Ġcontaining": 5234,
      "Ġneighbor": 5235,
      "Ġprofound": 5236,
      "Ġdescribe": 5237,
      "Ġwalking": 5238,
      "Ġconversation": 5239,
      "Is": 5240,
      "ĠCath": 5241,
      "Ġelim": 5242,
      "Ġpurposes": 5243,
      "vis": 5244,
      "Ġ23": 5245,
      "Ġlisten": 5246,
      "faces": 5247,
      "Ġiron": 5248,
      "Ġamounts": 5249,
      "Ġbattle": 5250,
      "Ġarm": 5251,
      "Ġrul": 5252,
      "dule": 5253,
      "Ġexistence": 5254,
      "Ġclim": 5255,
      "Ġreference": 5256,
      "Ġexcellent": 5257,
      "ĠAustralia": 5258,
      "Ġradio": 5259,
      "Ġsample": 5260,
      "Ġthin": 5261,
      "Ġcombination": 5262,
      "roup": 5263,
      "Ġrelatively": 5264,
      "Ġalike": 5265,
      "Ġign": 5266,
      "Ġfruits": 5267,
      "Ġsweet": 5268,
      "Ġbutter": 5269,
      "lines": 5270,
      "Ġexercises": 5271,
      "Ġtissue": 5272,
      "Ġconver": 5273,
      "ifications": 5274,
      "Ġtechnical": 5275,
      "Ġtouch": 5276,
      "Ġvibrant": 5277,
      "nect": 5278,
      "Ġbright": 5279,
      "Ġstorm": 5280,
      "Ġserving": 5281,
      "Ġwait": 5282,
      "Ġwaves": 5283,
      "Ġcircumstances": 5284,
      "Ġfaster": 5285,
      "ĠSub": 5286,
      "Ġstatement": 5287,
      "Ġsurvey": 5288,
      "Ġera": 5289,
      "telling": 5290,
      "Ġlabel": 5291,
      "ĠFin": 5292,
      "Ġassistance": 5293,
      "Ġasking": 5294,
      "ĠTest": 5295,
      "Ġtrig": 5296,
      "Ġfollows": 5297,
      "alysis": 5298,
      "Ġreplace": 5299,
      ".'": 5300,
      "Ġtum": 5301,
      "Ġleadership": 5302,
      "ĠBen": 5303,
      "Ġpages": 5304,
      "umn": 5305,
      "EC": 5306,
      "Ġletters": 5307,
      "500": 5308,
      "Ġdepression": 5309,
      "Ġoption": 5310,
      "Ġrat": 5311,
      "Ġgod": 5312,
      "Ġmotion": 5313,
      "arr": 5314,
      "Ġaccompl": 5315,
      "ĠSol": 5316,
      "ruary": 5317,
      "Ġsolve": 5318,
      "Ġath": 5319,
      "Ġinterview": 5320,
      "Ġcutting": 5321,
      "Ġjoin": 5322,
      "tee": 5323,
      "Ġwidely": 5324,
      "ari": 5325,
      "Ġrealm": 5326,
      "ĠStudents": 5327,
      "opped": 5328,
      "ĠDem": 5329,
      "Ġdoub": 5330,
      "Ġdocuments": 5331,
      "Ġcars": 5332,
      "Ġdetermined": 5333,
      "ogle": 5334,
      "ĠCollege": 5335,
      "Ġment": 5336,
      "Ġmaster": 5337,
      "Ġreleased": 5338,
      "Ġbrief": 5339,
      "Ġancest": 5340,
      "Ġadvancements": 5341,
      "ĠLondon": 5342,
      "Ġproposed": 5343,
      "],": 5344,
      "ĠAmong": 5345,
      "Ġoptimal": 5346,
      "ĠDavid": 5347,
      "Ġ2005": 5348,
      "Ġenthus": 5349,
      "Ġscript": 5350,
      "ago": 5351,
      "Ġhandle": 5352,
      "orking": 5353,
      "rome": 5354,
      "uit": 5355,
      "ĠTime": 5356,
      "Ġsort": 5357,
      "Ġ22": 5358,
      "Ġdisapp": 5359,
      "mark": 5360,
      "Ġremote": 5361,
      "Ġpollution": 5362,
      "ĠInte": 5363,
      "olute": 5364,
      "Ġseeds": 5365,
      "Ġdriving": 5366,
      "Ġdegrees": 5367,
      "ault": 5368,
      "Ġseven": 5369,
      "Ġsynt": 5370,
      "Ġreb": 5371,
      "ormal": 5372,
      "PS": 5373,
      "Ġnoticed": 5374,
      "Ġshel": 5375,
      "Ġformat": 5376,
      "Ġstruggle": 5377,
      "ygen": 5378,
      "parameter": 5379,
      "Ġsubstant": 5380,
      "Ġencounter": 5381,
      "ament": 5382,
      "Act": 5383,
      "ixture": 5384,
      "essel": 5385,
      "Ġartistic": 5386,
      "Ġpursu": 5387,
      "Ġprocedures": 5388,
      "Ġamb": 5389,
      "Ġconvey": 5390,
      "ĠDi": 5391,
      "ET": 5392,
      "lick": 5393,
      "Ġimplementation": 5394,
      "Ġparticles": 5395,
      "ava": 5396,
      "Ġinvestment": 5397,
      "Ġrecognition": 5398,
      "Ġoperating": 5399,
      "Ġcorpor": 5400,
      "Ġobstac": 5401,
      "ĠDirect": 5402,
      "Ġsyn": 5403,
      "ta": 5404,
      "Ġdynamic": 5405,
      "Ġunits": 5406,
      "Ġarticles": 5407,
      "Ġtaught": 5408,
      "ĠHol": 5409,
      "Ġpreviously": 5410,
      "bed": 5411,
      "Ġuniverse": 5412,
      "ĠManagement": 5413,
      "Ġsocieties": 5414,
      "ĠBob": 5415,
      "onp": 5416,
      "Ġban": 5417,
      "arsh": 5418,
      "oves": 5419,
      "Ġauthority": 5420,
      "Ġtap": 5421,
      "ails": 5422,
      "certain": 5423,
      "Ġembark": 5424,
      "Ġcream": 5425,
      "Ġfellow": 5426,
      "Ġreson": 5427,
      "dim": 5428,
      "Ġic": 5429,
      "Ġmagical": 5430,
      "Ġmobile": 5431,
      "ĠProject": 5432,
      "Ġsides": 5433,
      "Ġchosen": 5434,
      "ĠAsia": 5435,
      "Ġincorporate": 5436,
      "ald": 5437,
      "ĠIsland": 5438,
      "Ġstars": 5439,
      "Ġeight": 5440,
      "oma": 5441,
      "Ġoperation": 5442,
      "ĠRober": 5443,
      "ĠOut": 5444,
      "token": 5445,
      "Ġfacts": 5446,
      "Ġinvent": 5447,
      "Ġplastic": 5448,
      "name": 5449,
      "Ã³": 5450,
      "Ġprogramming": 5451,
      "Ġpowers": 5452,
      "ĠUlt": 5453,
      "Ġflood": 5454,
      "AM": 5455,
      "rog": 5456,
      "Ġannual": 5457,
      "Ġopening": 5458,
      "tical": 5459,
      "Ġadvice": 5460,
      "Ġwall": 5461,
      "Ġregulations": 5462,
      "Ġhousehold": 5463,
      "Ġwaiting": 5464,
      "ĠTwo": 5465,
      "ctor": 5466,
      "verty": 5467,
      "Ġdoll": 5468,
      "Ġskill": 5469,
      "Ġisland": 5470,
      "Ġvot": 5471,
      "Ġpoverty": 5472,
      "Ġenhancing": 5473,
      "ĠTre": 5474,
      "Ġsurgery": 5475,
      "Ġteams": 5476,
      "Ġconflicts": 5477,
      "wer": 5478,
      "Ġconversations": 5479,
      "Ġkid": 5480,
      "Ġinsect": 5481,
      "ss": 5482,
      "Ġcompetition": 5483,
      "ĠMexico": 5484,
      "Res": 5485,
      "ĠBecause": 5486,
      "ĠSun": 5487,
      "ĠInternet": 5488,
      "Ġcommitment": 5489,
      "Ġnotable": 5490,
      "Ġflat": 5491,
      "ĠNum": 5492,
      "Ġremarkable": 5493,
      "och": 5494,
      "Ġsquare": 5495,
      "ĠService": 5496,
      "Ġcos": 5497,
      "Ġjoy": 5498,
      "Ġagg": 5499,
      "Ġhuge": 5500,
      "Ġvolume": 5501,
      "$$": 5502,
      "Chapter": 5503,
      "Ġsau": 5504,
      "Ġadvantage": 5505,
      "Ġpreserving": 5506,
      "Ġgrew": 5507,
      "onpep": 5508,
      "ĠMount": 5509,
      "ander": 5510,
      "cip": 5511,
      "Ġarts": 5512,
      "ĠSpec": 5513,
      "Ġfrequency": 5514,
      "ĠGeorge": 5515,
      "Ġclassroom": 5516,
      "ifies": 5517,
      "Ġpracticing": 5518,
      "Ġdoctors": 5519,
      "Ġcul": 5520,
      "ĠUN": 5521,
      "Ġchronic": 5522,
      "Ġkit": 5523,
      "Ġfiles": 5524,
      "Ġcere": 5525,
      "ĠSk": 5526,
      "urd": 5527,
      "rans": 5528,
      "Ġamidst": 5529,
      "inant": 5530,
      "Ġwarn": 5531,
      "Ġconsidering": 5532,
      "from": 5533,
      "EM": 5534,
      "Ġartificial": 5535,
      "Ġdetailed": 5536,
      "ĠTexas": 5537,
      "uracy": 5538,
      "rene": 5539,
      "Ġdelicious": 5540,
      "ĠExper": 5541,
      "apping": 5542,
      "Ġprepare": 5543,
      "Ġwellbeing": 5544,
      "ĠIndigenous": 5545,
      "Ġdemonstrate": 5546,
      "fit": 5547,
      "ĠStr": 5548,
      "pet": 5549,
      "asts": 5550,
      "Ġshowing": 5551,
      "orrow": 5552,
      "ĠFore": 5553,
      "plicated": 5554,
      "ĠClass": 5555,
      "ĠPaul": 5556,
      "Ġparticipate": 5557,
      "Ġproperly": 5558,
      "Ġgrass": 5559,
      "Ġcomfortable": 5560,
      "ĠPost": 5561,
      "Ġ{": 5562,
      "Ġselection": 5563,
      "ashion": 5564,
      "Ġinherent": 5565,
      "ĠMuseum": 5566,
      "Ġcatch": 5567,
      "Ġfirm": 5568,
      "ĠExamples": 5569,
      "holders": 5570,
      "Ġjobs": 5571,
      "Some": 5572,
      "ĠIS": 5573,
      "ĠCare": 5574,
      "ĠTogether": 5575,
      "ĠCivil": 5576,
      "Ġrenewable": 5577,
      "Ġflavor": 5578,
      "Ġleader": 5579,
      "ĠVis": 5580,
      "pre": 5581,
      "Ġindex": 5582,
      "Ġcapture": 5583,
      "Ġnu": 5584,
      "ĠBel": 5585,
      "Ġthereby": 5586,
      "Ġhabits": 5587,
      "Ġsell": 5588,
      "Ġbone": 5589,
      "ĠSpace": 5590,
      "35": 5591,
      "ĠRef": 5592,
      "Ġvolunte": 5593,
      "Ġraised": 5594,
      "Ġcycle": 5595,
      "Ġinsight": 5596,
      "Ġmarg": 5597,
      "ĠWhe": 5598,
      "29": 5599,
      "imal": 5600,
      "mas": 5601,
      "Ġdangerous": 5602,
      "ĠBas": 5603,
      "Ġimprovement": 5604,
      "hand": 5605,
      "ĠSch": 5606,
      "Ġmeals": 5607,
      "Ġmorning": 5608,
      "Ġrecommended": 5609,
      "wood": 5610,
      "Ġorigin": 5611,
      "Ġneighb": 5612,
      "mes": 5613,
      "othe": 5614,
      "Ġdecide": 5615,
      "Ġbread": 5616,
      "ĠRepublic": 5617,
      "They": 5618,
      "Ġhighest": 5619,
      "Ġstake": 5620,
      "ĠProfess": 5621,
      "Ġlic": 5622,
      "aming": 5623,
      "ĠNet": 5624,
      "Ġflour": 5625,
      "27": 5626,
      "Ġinspire": 5627,
      "acific": 5628,
      "Ġtrip": 5629,
      "ĠDel": 5630,
      "Ġwalls": 5631,
      "Ġwondered": 5632,
      "utive": 5633,
      "Ġweap": 5634,
      "Ġpray": 5635,
      "Ġanalyzing": 5636,
      "Ġresponses": 5637,
      "inter": 5638,
      "Ġideal": 5639,
      "ĠLou": 5640,
      "Ġsensitive": 5641,
      "ĠEnergy": 5642,
      "Ġspend": 5643,
      "Ġbird": 5644,
      "Ġroutine": 5645,
      "Ġvessel": 5646,
      "Ġmachines": 5647,
      "eles": 5648,
      "ST": 5649,
      "Ġslowly": 5650,
      "ĠEst": 5651,
      "Ġspring": 5652,
      "stood": 5653,
      "Ġerror": 5654,
      "ague": 5655,
      "ffee": 5656,
      "Ġflowers": 5657,
      "Ġyouth": 5658,
      "Ġsimultane": 5659,
      "Ġconcern": 5660,
      "ulf": 5661,
      "coming": 5662,
      "Ġpassage": 5663,
      "Ġwaters": 5664,
      "ena": 5665,
      "Ġessay": 5666,
      "Sh": 5667,
      "Ġattend": 5668,
      "tra": 5669,
      "Ġsuitable": 5670,
      "Ġlistening": 5671,
      "Ġvocab": 5672,
      "Ġsusp": 5673,
      "Ġstages": 5674,
      "bi": 5675,
      "Ġmaintenance": 5676,
      "Ġalcohol": 5677,
      "ersonal": 5678,
      "kens": 5679,
      "icit": 5680,
      "Ġband": 5681,
      "Ġexamination": 5682,
      "Ġmuscle": 5683,
      "ĠChildren": 5684,
      "Ġhour": 5685,
      "world": 5686,
      "ait": 5687,
      "empl": 5688,
      "char": 5689,
      "mic": 5690,
      "ipping": 5691,
      "ĠGr": 5692,
      "ounced": 5693,
      "eless": 5694,
      "Ġasp": 5695,
      "Ġtro": 5696,
      "Ġlinked": 5697,
      "Ġfort": 5698,
      "Ġeveryday": 5699,
      "HE": 5700,
      "ĠPort": 5701,
      "Ġclients": 5702,
      "Ġdin": 5703,
      "Ġsuggested": 5704,
      "Ġtreated": 5705,
      "Ġvehicles": 5706,
      "Ġdestroy": 5707,
      "ĠArab": 5708,
      "Ġwriters": 5709,
      "Ġsustainability": 5710,
      "Ġtraum": 5711,
      "Ġintrig": 5712,
      "Ġantib": 5713,
      "Ġ190": 5714,
      "ĠPhys": 5715,
      "ĠMiss": 5716,
      "Ġdish": 5717,
      "ĠFebruary": 5718,
      "free": 5719,
      "Ġintervention": 5720,
      "ĠTherefore": 5721,
      "Ġherself": 5722,
      "Ġlatest": 5723,
      "Ġnor": 5724,
      "Ġmoral": 5725,
      "Ġorganized": 5726,
      "aks": 5727,
      "Ġ127": 5728,
      "Ġassessment": 5729,
      "Ġbank": 5730,
      "pat": 5731,
      "ician": 5732,
      "ĠLike": 5733,
      "active": 5734,
      "Ġfailure": 5735,
      "gl": 5736,
      "ĠNAS": 5737,
      "Be": 5738,
      "Our": 5739,
      "Ġmanufacture": 5740,
      "Ġconsumers": 5741,
      "Ġconfidence": 5742,
      "Ġintellectual": 5743,
      "ansion": 5744,
      "Ġotherwise": 5745,
      "Ġviews": 5746,
      "Ġscene": 5747,
      "Once": 5748,
      "Ġliquid": 5749,
      "Ġcompassion": 5750,
      "then": 5751,
      "ventions": 5752,
      "ĠMaybe": 5753,
      "ĠJud": 5754,
      "Ġphotos": 5755,
      "Ġfeat": 5756,
      "ĠCreat": 5757,
      "Ġ26": 5758,
      "Ġemployed": 5759,
      "anguage": 5760,
      "Ġdishes": 5761,
      "ĠInf": 5762,
      "Ġformal": 5763,
      "Ġentertain": 5764,
      "Ġperformed": 5765,
      "Ġcharge": 5766,
      "Com": 5767,
      "Ġindustries": 5768,
      "ĠTechnology": 5769,
      "Ġreferred": 5770,
      "Ġoxygen": 5771,
      "Ġrely": 5772,
      "Ġreform": 5773,
      "Ġimplementing": 5774,
      "Ġrom": 5775,
      "Ġsamples": 5776,
      "ĠInformation": 5777,
      "Ġkept": 5778,
      "Ġmarked": 5779,
      "Ġconventional": 5780,
      "ĠOh": 5781,
      "Ġconscious": 5782,
      "Ġagriculture": 5783,
      "Ġsubstantial": 5784,
      "Ġtokens": 5785,
      "Ġstanding": 5786,
      "ĠCouncil": 5787,
      "Ġran": 5788,
      "ĠUt": 5789,
      "Ġaffects": 5790,
      "Ġlots": 5791,
      "Ġ28": 5792,
      "stract": 5793,
      "Ġdepth": 5794,
      "ĠMedical": 5795,
      "Ġremaining": 5796,
      "Ġresolution": 5797,
      "26": 5798,
      "do": 5799,
      "def": 5800,
      "Ġbrings": 5801,
      "aker": 5802,
      "Ġfocusing": 5803,
      "Ġofficials": 5804,
      "Ġspl": 5805,
      "ĠCommon": 5806,
      "Ġcloud": 5807,
      "ĠRich": 5808,
      "Ġsole": 5809,
      "ĠLibr": 5810,
      "heast": 5811,
      "ĠNative": 5812,
      "Ġpresident": 5813,
      "Ġmeal": 5814,
      "Ġspeaking": 5815,
      "ael": 5816,
      "Ġship": 5817,
      "Ġfocuses": 5818,
      "Ġap": 5819,
      "ĠStep": 5820,
      "Ġfoss": 5821,
      "Ġfunding": 5822,
      "ĠLatin": 5823,
      "obal": 5824,
      "Ġmemories": 5825,
      "Ġplease": 5826,
      "ĠWind": 5827,
      "BT": 5828,
      "ĠReal": 5829,
      "word": 5830,
      "ĠPers": 5831,
      "Ġusage": 5832,
      "ĠStudy": 5833,
      "that": 5834,
      "Ġmajority": 5835,
      "rieved": 5836,
      "ett": 5837,
      "ĠHel": 5838,
      "Ġdouble": 5839,
      "ĠPower": 5840,
      "ĠMal": 5841,
      "Ġuns": 5842,
      "step": 5843,
      "Ġinner": 5844,
      "Ġrecognized": 5845,
      "Ġrobust": 5846,
      "Ġfacilities": 5847,
      "osa": 5848,
      "Ġoccurred": 5849,
      "Ġadap": 5850,
      "point": 5851,
      "ĠMart": 5852,
      "Ġintended": 5853,
      "unning": 5854,
      "Ġpsychological": 5855,
      "Ġagencies": 5856,
      "Ġelev": 5857,
      "ĠCentral": 5858,
      "Ġforced": 5859,
      "Ġmanaged": 5860,
      "ĠKey": 5861,
      "ĠQue": 5862,
      "Ġinteraction": 5863,
      "icks": 5864,
      "Ġappearance": 5865,
      "Ġmixture": 5866,
      "Ġcrops": 5867,
      "Ġwear": 5868,
      "ĠAdaptive": 5869,
      "Ġmarkets": 5870,
      "Ġbarriers": 5871,
      "Ġstret": 5872,
      "ĠDiv": 5873,
      "Ġpainting": 5874,
      "Ġargument": 5875,
      "Cl": 5876,
      "igure": 5877,
      "riage": 5878,
      "Ġcomment": 5879,
      "ĠAnother": 5880,
      "Ġnegot": 5881,
      "lessly": 5882,
      "Ġbelief": 5883,
      "ĠSecond": 5884,
      "Ġhoriz": 5885,
      "Ġwhom": 5886,
      "ien": 5887,
      "idents": 5888,
      "Ġdie": 5889,
      "ĠBudd": 5890,
      "Ġtun": 5891,
      "ĠDist": 5892,
      "ĠStand": 5893,
      "Ġfluid": 5894,
      "ĠMixing": 5895,
      "Ġarrived": 5896,
      "add": 5897,
      "compass": 5898,
      "Ġcredit": 5899,
      "Ġelectrical": 5900,
      "with": 5901,
      "Ġscan": 5902,
      "Ġartist": 5903,
      "Ġlocations": 5904,
      "Ġgenes": 5905,
      "Ġrelative": 5906,
      "Ġcarried": 5907,
      "pare": 5908,
      "Ġmovie": 5909,
      "ĠEnvironmental": 5910,
      "Ġsimpl": 5911,
      "itudes": 5912,
      "Ġfacilitate": 5913,
      "Ġdro": 5914,
      "Over": 5915,
      "Ġ27": 5916,
      "Ġnerv": 5917,
      "Ġphase": 5918,
      "Ġsurvival": 5919,
      "mp": 5920,
      "Ġturns": 5921,
      "alse": 5922,
      "Ġstarts": 5923,
      "Ġwitness": 5924,
      "iday": 5925,
      "isher": 5926,
      "ditional": 5927,
      "Ġengaged": 5928,
      "Ġentirely": 5929,
      "Ġschedule": 5930,
      "------------": 5931,
      "Ġcalls": 5932,
      "Ġaffecting": 5933,
      "Ġcaptivating": 5934,
      "Ġupper": 5935,
      "Ġalgorithms": 5936,
      "Ġkinds": 5937,
      "Ġadequ": 5938,
      "Ġinjury": 5939,
      "Ġcontributions": 5940,
      "ĠSy": 5941,
      "Ġax": 5942,
      "Ġdiss": 5943,
      "tering": 5944,
      "Ġaccuracy": 5945,
      "Ġbrother": 5946,
      "ĊĠĠĠĠĠĠĠĠ": 5947,
      "ĠMem": 5948,
      "Ġpossibilities": 5949,
      "Ġwhenever": 5950,
      "itz": 5951,
      "Ġinternet": 5952,
      "Ġsupported": 5953,
      "Ġthreats": 5954,
      "'d": 5955,
      "90": 5956,
      "such": 5957,
      "well": 5958,
      "Ġhospital": 5959,
      "Ġphilosophy": 5960,
      "iate": 5961,
      "rolog": 5962,
      "Ġinspiration": 5963,
      "Ġrow": 5964,
      "Ġsuccessfully": 5965,
      "ĠSen": 5966,
      "Ġvictim": 5967,
      "ocal": 5968,
      "arity": 5969,
      "section": 5970,
      "ĠWork": 5971,
      "Ġmaximum": 5972,
      "ĠSl": 5973,
      "nel": 5974,
      "ĠSum": 5975,
      "Ġsignals": 5976,
      "Ġâ": 5977,
      "ĠTV": 5978,
      "Ġabuse": 5979,
      "Ġbegins": 5980,
      "Ġminimize": 5981,
      "asy": 5982,
      "Ġdoor": 5983,
      "Example": 5984,
      "Ġresidents": 5985,
      "Ġoffic": 5986,
      "Ġempower": 5987,
      "win": 5988,
      "Ġbreath": 5989,
      "ĠThomas": 5990,
      "ĠPacific": 5991,
      "Ġheads": 5992,
      "Ġrural": 5993,
      "Ġcamera": 5994,
      "Ġblog": 5995,
      "Ġedge": 5996,
      "SD": 5997,
      "Ġhumanity": 5998,
      "Ġtherap": 5999,
      "Ġadvantages": 6000,
      "Ġlifest": 6001,
      "ĠMain": 6002,
      "Ġclaims": 6003,
      "Ġagency": 6004,
      "Ġrequest": 6005,
      "roduct": 6006,
      "Ġreturns": 6007,
      "ĠAut": 6008,
      "Ġraise": 6009,
      "33": 6010,
      "field": 6011,
      "Ġstability": 6012,
      "Ġextraord": 6013,
      "Ġrequiring": 6014,
      "Ġprofessor": 6015,
      "Ġforget": 6016,
      "Ġhealing": 6017,
      "Ġholds": 6018,
      "Ġexposed": 6019,
      "AD": 6020,
      "Ġfr": 6021,
      "friendly": 6022,
      "Ġcandid": 6023,
      "Ġstorytelling": 6024,
      "Ġestimated": 6025,
      "Ġwet": 6026,
      "quality": 6027,
      "Ġastron": 6028,
      "Ġreven": 6029,
      "Ġelectronic": 6030,
      "Ġwildlife": 6031,
      "hem": 6032,
      "Us": 6033,
      "ĠHistorical": 6034,
      "Ġcompleted": 6035,
      "fortunately": 6036,
      "Despite": 6037,
      "print": 6038,
      "Ġindicate": 6039,
      "Ġmitig": 6040,
      "plot": 6041,
      "ossible": 6042,
      "Ġreturned": 6043,
      "Ġchemicals": 6044,
      "which": 6045,
      "Ġyield": 6046,
      "Ġconcise": 6047,
      "From": 6048,
      "Ġ2004": 6049,
      "ĠVirgin": 6050,
      "hered": 6051,
      "Ġphr": 6052,
      "Ġblocks": 6053,
      "ĠMet": 6054,
      "Ġstrange": 6055,
      "Ġvariables": 6056,
      "whel": 6057,
      "Ġcontributing": 6058,
      "ĠCurrent": 6059,
      "Ġgrown": 6060,
      "Ġreduction": 6061,
      "Ġproteins": 6062,
      "arter": 6063,
      "Ġtells": 6064,
      "All": 6065,
      "Ġmassive": 6066,
      "Ġsend": 6067,
      "Ġaudiences": 6068,
      "ĠModern": 6069,
      "ĠCatholic": 6070,
      "uis": 6071,
      "Ġheavily": 6072,
      "Ġmaps": 6073,
      "Ġrecommendations": 6074,
      "ĠAtl": 6075,
      "ĠCourt": 6076,
      "ĠMax": 6077,
      "ĠMean": 6078,
      "rian": 6079,
      "ĠGovernment": 6080,
      "Ġdatas": 6081,
      "Ġshift": 6082,
      "Ġcompare": 6083,
      "ĠConsequently": 6084,
      "\")": 6085,
      "Ġemergency": 6086,
      "Ġvariable": 6087,
      "ĠAcad": 6088,
      "Ġcoun": 6089,
      "Ġobstacles": 6090,
      "Ġlung": 6091,
      "chers": 6092,
      "rets": 6093,
      "Ġsen": 6094,
      "olit": 6095,
      "Throughout": 6096,
      "Ġstands": 6097,
      "Ġparalle": 6098,
      "Ġmath": 6099,
      "ads": 6100,
      "Ġcheese": 6101,
      "Ġpp": 6102,
      "Ġoverl": 6103,
      "ĠDet": 6104,
      "Ġdomestic": 6105,
      "ĠLLM": 6106,
      "Ġburn": 6107,
      "Ġlens": 6108,
      "agues": 6109,
      "Ġfunctional": 6110,
      "Ġadvert": 6111,
      "Ġexplored": 6112,
      "Ġreaction": 6113,
      "ĠEconom": 6114,
      "ĠGoogle": 6115,
      "Ġsought": 6116,
      "Ġexpertise": 6117,
      "Ġhearing": 6118,
      "berg": 6119,
      "Key": 6120,
      "Ġsouthern": 6121,
      "olf": 6122,
      "Ġbiological": 6123,
      "ulum": 6124,
      "Ġmarine": 6125,
      "ĠLearning": 6126,
      "Ġselected": 6127,
      "Ġrecovery": 6128,
      "Ġaccounts": 6129,
      "Ġseeing": 6130,
      "ocratic": 6131,
      "rete": 6132,
      "Ġnoted": 6133,
      "Ġstation": 6134,
      "Ġconstit": 6135,
      "lers": 6136,
      "Ġmonitor": 6137,
      "ĠMass": 6138,
      "ĠFind": 6139,
      "Token": 6140,
      "itutional": 6141,
      "Ġgently": 6142,
      "ressing": 6143,
      "uous": 6144,
      "ĠBay": 6145,
      "Ġguess": 6146,
      "west": 6147,
      "ĠStudies": 6148,
      "Ġagricultural": 6149,
      "ĠGated": 6150,
      "band": 6151,
      "ga": 6152,
      "flow": 6153,
      "nected": 6154,
      "ĠYes": 6155,
      "Ġ2003": 6156,
      "Ġchicken": 6157,
      "AP": 6158,
      "ĠLord": 6159,
      "Ġdevelopments": 6160,
      "ĠCap": 6161,
      "Ġcoffee": 6162,
      "Ġwants": 6163,
      "Ġwave": 6164,
      "Ġacts": 6165,
      "ĠMedicine": 6166,
      "Ġathlet": 6167,
      "Americ": 6168,
      "45": 6169,
      "ĠKnow": 6170,
      "Ġexplan": 6171,
      "ĠJe": 6172,
      "Ġcoal": 6173,
      "Ġlandscapes": 6174,
      "Ġcharacterized": 6175,
      "Ġsymbols": 6176,
      "uls": 6177,
      "Ġadm": 6178,
      "Ġcountless": 6179,
      "Ġwise": 6180,
      "Ġmort": 6181,
      "Ġsummary": 6182,
      "zy": 6183,
      "ĠKore": 6184,
      "Ġsentence": 6185,
      "ĠSmith": 6186,
      "En": 6187,
      "venile": 6188,
      "Ġcrow": 6189,
      "Ġappoint": 6190,
      "Ġevaluate": 6191,
      "ĊĠ": 6192,
      "ivery": 6193,
      "Ġfeels": 6194,
      "EL": 6195,
      "Ġrice": 6196,
      "ĠImp": 6197,
      "ij": 6198,
      "Ġcapabilities": 6199,
      "Ġnan": 6200,
      "Ġunderstood": 6201,
      "hyth": 6202,
      "75": 6203,
      "ĠColl": 6204,
      "alled": 6205,
      "Ġnavigating": 6206,
      "ĠPsych": 6207,
      "Ġpip": 6208,
      "ĠBet": 6209,
      "bing": 6210,
      "Ġmyth": 6211,
      "Ġmuseum": 6212,
      "Ġstock": 6213,
      "sm": 6214,
      "Ġcollected": 6215,
      "Ġcurric": 6216,
      "ĠMuslim": 6217,
      "Ġinhab": 6218,
      "Ġaccessible": 6219,
      "Ġextraordinary": 6220,
      "Ġbrown": 6221,
      "Ġdiscussed": 6222,
      "ĠCam": 6223,
      "ĠOld": 6224,
      "Ġsick": 6225,
      "Ġseemingly": 6226,
      "Ġtall": 6227,
      "clus": 6228,
      "Ġrestrict": 6229,
      "ĠRobert": 6230,
      "No": 6231,
      "vity": 6232,
      "using": 6233,
      "Ġmedications": 6234,
      "Ġdemands": 6235,
      "ĠJer": 6236,
      "ĠWhite": 6237,
      "Ġnorms": 6238,
      "ĠScient": 6239,
      "Ġminds": 6240,
      "Ġinstruments": 6241,
      "Ġchain": 6242,
      "Ġsimultaneously": 6243,
      "vance": 6244,
      "CC": 6245,
      "Ġharmful": 6246,
      "ria": 6247,
      "Ġconclud": 6248,
      "Ġpretty": 6249,
      "Ġdu": 6250,
      "Ġpreserve": 6251,
      "Ġproducing": 6252,
      "Ġstick": 6253,
      "Ġconsideration": 6254,
      "Ġplayer": 6255,
      "Ġethnic": 6256,
      "Ð°Ð": 6257,
      "Ġtables": 6258,
      "Ġ80": 6259,
      "ĠFre": 6260,
      "MS": 6261,
      "Ġturning": 6262,
      "Ġseed": 6263,
      "Ġefficiently": 6264,
      "Ġtit": 6265,
      "lights": 6266,
      "Ġconcerning": 6267,
      "ĠMil": 6268,
      "Ġencouraging": 6269,
      "Ġmuscles": 6270,
      "Ġmoist": 6271,
      "Ġspending": 6272,
      "Ġinsurance": 6273,
      "Ġdisp": 6274,
      "Ġdirector": 6275,
      "ĠNASA": 6276,
      "Ġuncertain": 6277,
      "Ġovercome": 6278,
      "Ġstruggles": 6279,
      "ographical": 6280,
      "Ġmarginal": 6281,
      "Ġcrim": 6282,
      "unk": 6283,
      "Ġhorm": 6284,
      "Ġneighborhood": 6285,
      "Ġlib": 6286,
      "Ġeffectiveness": 6287,
      "Ġtransition": 6288,
      "Ġsector": 6289,
      "Ġpaid": 6290,
      "Ġclothing": 6291,
      "Ġrecipe": 6292,
      "Ġdispar": 6293,
      "umes": 6294,
      "cling": 6295,
      "Ġkilled": 6296,
      "ĠExp": 6297,
      "Ġgent": 6298,
      "Ġfabric": 6299,
      "Ġlearners": 6300,
      "eal": 6301,
      "ĠElect": 6302,
      "ĠGood": 6303,
      "Ġacknowled": 6304,
      "umin": 6305,
      "Ġdetermination": 6306,
      "New": 6307,
      "ĠJohns": 6308,
      "Ġcorn": 6309,
      "Ġconsists": 6310,
      "Ġthanks": 6311,
      "Ġhabitat": 6312,
      "Ġsupplies": 6313,
      "Ġwatching": 6314,
      "itivity": 6315,
      "roid": 6316,
      "ĠWomen": 6317,
      "Ġnoise": 6318,
      "Ġintegration": 6319,
      "lig": 6320,
      "ĠRussia": 6321,
      "Ġspecialized": 6322,
      "Ġalgorithm": 6323,
      "Ġ1990": 6324,
      "Lesson": 6325,
      "Ġregul": 6326,
      "ĠPen": 6327,
      "Ġagreed": 6328,
      "Ġlinks": 6329,
      "Ġpositions": 6330,
      "down": 6331,
      "Ġapplying": 6332,
      "Ġparticipation": 6333,
      "Ġbeings": 6334,
      "chen": 6335,
      "Ġflo": 6336,
      "Ġmyself": 6337,
      "Ġobjectives": 6338,
      "ĠNews": 6339,
      "36": 6340,
      "Ġproviders": 6341,
      "Ġauthentic": 6342,
      "Ġcontrolled": 6343,
      "Ġidentifying": 6344,
      "otics": 6345,
      "Ġframework": 6346,
      "ffective": 6347,
      "ighter": 6348,
      "39": 6349,
      "Ġdiscrimination": 6350,
      "Ġwindow": 6351,
      "Ġcontinuous": 6352,
      "ĠSal": 6353,
      "ĠHen": 6354,
      "celer": 6355,
      "ĠCommission": 6356,
      "Ġintroduce": 6357,
      "Ġsufficient": 6358,
      "ĠPhil": 6359,
      "Ġmotor": 6360,
      "Ġcategories": 6361,
      "Ġhandling": 6362,
      "Ġpoetry": 6363,
      "Ġoverwhel": 6364,
      "ĠAD": 6365,
      "Ġtheore": 6366,
      "Ġexists": 6367,
      "Ġcomposition": 6368,
      "Ġinfluenced": 6369,
      "ĠFranc": 6370,
      "aturally": 6371,
      "Ġmanner": 6372,
      "roph": 6373,
      "Ġprotecting": 6374,
      "alian": 6375,
      "rovers": 6376,
      "Ġvehicle": 6377,
      "Ġinfections": 6378,
      "Ġforests": 6379,
      "Ġfriendly": 6380,
      "ĠFlor": 6381,
      "oding": 6382,
      "ceived": 6383,
      "ĠBre": 6384,
      "Ġtales": 6385,
      "Ġregardless": 6386,
      "Ġinitially": 6387,
      "ĠNor": 6388,
      "ocation": 6389,
      "Ġremoved": 6390,
      "ptions": 6391,
      "ĠSov": 6392,
      "otal": 6393,
      "ĠBefore": 6394,
      "Ġod": 6395,
      "Ġdatabase": 6396,
      "Ġemotion": 6397,
      "Ġreliable": 6398,
      "Ġparameter": 6399,
      "Ġtransformation": 6400,
      "Ġdemonstrated": 6401,
      "Ġrecy": 6402,
      "ndrome": 6403,
      "Ġrough": 6404,
      "Ġclassic": 6405,
      "lo": 6406,
      "izer": 6407,
      "ommod": 6408,
      "Ġconnecting": 6409,
      "Ġlimitations": 6410,
      "Ġcert": 6411,
      "Ġexplo": 6412,
      "Ġ2001": 6413,
      "ĠOpen": 6414,
      "CE": 6415,
      "Ġmountain": 6416,
      "Ġstone": 6417,
      "Ġfighting": 6418,
      "Ġboost": 6419,
      "Ġmutual": 6420,
      "ota": 6421,
      "ĠCarol": 6422,
      "Ġsauce": 6423,
      "Ġvs": 6424,
      "Ġimper": 6425,
      "ĠBer": 6426,
      "Ġhaz": 6427,
      "Ġdistingu": 6428,
      "Ġproductivity": 6429,
      "Ġ90": 6430,
      "atever": 6431,
      "Ġtailored": 6432,
      "Ġextremely": 6433,
      "Ġmagic": 6434,
      "isk": 6435,
      "Ġpoem": 6436,
      "Ġprocedure": 6437,
      "OT": 6438,
      "Ġ2002": 6439,
      "Ġnorthern": 6440,
      "ĠRetrieved": 6441,
      "Ġmusical": 6442,
      "van": 6443,
      "Ġsuc": 6444,
      "Ġwid": 6445,
      "Ġkill": 6446,
      "Ġfashion": 6447,
      "Ġinterventions": 6448,
      "Ġopened": 6449,
      "Rem": 6450,
      "usiness": 6451,
      "Ġinfluences": 6452,
      "Ġnutrients": 6453,
      "ii": 6454,
      "Ġconfident": 6455,
      "Ġlaun": 6456,
      "ishes": 6457,
      "mal": 6458,
      "Ġpatience": 6459,
      "Ġrecognizing": 6460,
      "stream": 6461,
      "Ġprevention": 6462,
      "ĠMac": 6463,
      "Ġholding": 6464,
      "Ġdealing": 6465,
      "Ġtoxic": 6466,
      "Ġattacks": 6467,
      "Ġstem": 6468,
      "Ġdecor": 6469,
      "Ġsatisf": 6470,
      "inet": 6471,
      "Ġencompass": 6472,
      "Ġcombines": 6473,
      "Ġimpl": 6474,
      "Ġunlike": 6475,
      "Ġdogs": 6476,
      "inity": 6477,
      "ĠLouis": 6478,
      "Ġrepresented": 6479,
      "Ġclub": 6480,
      "Ġderived": 6481,
      "Ġpair": 6482,
      "Ġshad": 6483,
      "ĠStat": 6484,
      "Ġunders": 6485,
      "ĠAccess": 6486,
      "Ġinches": 6487,
      "ĠAtt": 6488,
      "asty": 6489,
      "Ġsubstance": 6490,
      "ĠRussian": 6491,
      "Ġ>": 6492,
      "Ġbonds": 6493,
      "Ġreader": 6494,
      "Ġengineers": 6495,
      "Ġstrict": 6496,
      "ĠReview": 6497,
      "Ġdrink": 6498,
      "Ġgirls": 6499,
      "Ġtele": 6500,
      "ĠBook": 6501,
      "Ġther": 6502,
      "rays": 6503,
      "Ġfunds": 6504,
      "Ġhundreds": 6505,
      "osite": 6506,
      "ĠÃ": 6507,
      "ĠRights": 6508,
      "Ġapparent": 6509,
      "ĠAns": 6510,
      "Ġjoint": 6511,
      "roke": 6512,
      "pread": 6513,
      "Ġyellow": 6514,
      "Ġfeaturing": 6515,
      "ĠBible": 6516,
      "Ġappeared": 6517,
      "lets": 6518,
      "asive": 6519,
      "Ġdrawn": 6520,
      "ĠGold": 6521,
      "cription": 6522,
      "sequent": 6523,
      "ĠList": 6524,
      "Ġevolved": 6525,
      "Ġcorner": 6526,
      "Ġconsumer": 6527,
      "Ġsatell": 6528,
      "Ġpepper": 6529,
      "Ġexcit": 6530,
      "Ġmathematical": 6531,
      "Ġcompact": 6532,
      "Ġsurve": 6533,
      "Ġdefinition": 6534,
      "racy": 6535,
      "Ġexpressions": 6536,
      "Ġargue": 6537,
      "100": 6538,
      "long": 6539,
      "Ġclust": 6540,
      "Ġfewer": 6541,
      "Ġrepresenting": 6542,
      "Ġstreet": 6543,
      "ĠExploring": 6544,
      "Ġretain": 6545,
      "Ġsched": 6546,
      "ĠST": 6547,
      "Ġsettle": 6548,
      "Ġchildhood": 6549,
      "ĠControl": 6550,
      "].": 6551,
      "Ġgenerated": 6552,
      "Ġgreatest": 6553,
      "Ġphotograph": 6554,
      "Ġportion": 6555,
      "ML": 6556,
      "Ġpuzz": 6557,
      "Ġmood": 6558,
      "Ġlibraries": 6559,
      "Ġarms": 6560,
      "Ġperforming": 6561,
      "ĠTer": 6562,
      "Ġcenters": 6563,
      "Ġcomputing": 6564,
      "ĠLabor": 6565,
      "Ġsessions": 6566,
      "ĠTreat": 6567,
      "istan": 6568,
      "Ġ29": 6569,
      "Ġfloor": 6570,
      "Ġscalar": 6571,
      "Ġske": 6572,
      "icking": 6573,
      "ĠForm": 6574,
      "Ġorganisms": 6575,
      "Ġtitle": 6576,
      "Ġappeal": 6577,
      "ĠEngine": 6578,
      "ensus": 6579,
      "Ġidentities": 6580,
      "ĠNon": 6581,
      "Ġalt": 6582,
      "Ġindeed": 6583,
      "astly": 6584,
      "Ġsoldiers": 6585,
      "Ġnarrow": 6586,
      "Ġsubs": 6587,
      "ĠAN": 6588,
      "Ġ70": 6589,
      "Ġprem": 6590,
      "Ġarguments": 6591,
      "Ġlas": 6592,
      "Ġstudied": 6593,
      "Ġstrategic": 6594,
      "ĠTake": 6595,
      "Ġlinear": 6596,
      "Ġexcited": 6597,
      "Ġneuro": 6598,
      "Ġreactions": 6599,
      "Ġwest": 6600,
      "neys": 6601,
      "ya": 6602,
      "34": 6603,
      "ulpt": 6604,
      "ĠWild": 6605,
      "ato": 6606,
      "Ġsupports": 6607,
      "Ġdisrupt": 6608,
      "Ġeducators": 6609,
      "otes": 6610,
      "ĠLiter": 6611,
      "Ġpersons": 6612,
      "RI": 6613,
      "Ġmatch": 6614,
      "Ġinvestigation": 6615,
      "Ġstrengthen": 6616,
      "Ġfle": 6617,
      "Ġgall": 6618,
      ",'": 6619,
      "throp": 6620,
      "Ġshaped": 6621,
      "Ġdifferently": 6622,
      "ourse": 6623,
      "ĠBritain": 6624,
      "Ġstakeholders": 6625,
      "Ġwhereas": 6626,
      "Ġimmers": 6627,
      "Ġpractition": 6628,
      "cell": 6629,
      "acies": 6630,
      "Ġtrial": 6631,
      "Ġinstances": 6632,
      "Ġcrisis": 6633,
      "Ġshed": 6634,
      "Ġfell": 6635,
      "orders": 6636,
      "Se": 6637,
      "Ġcraft": 6638,
      "Ġdelivery": 6639,
      "37": 6640,
      "ugg": 6641,
      "reprene": 6642,
      "Ġfulf": 6643,
      "idespread": 6644,
      "iability": 6645,
      "ĠCy": 6646,
      "Ġhousing": 6647,
      "Ġlimits": 6648,
      "Ġdebate": 6649,
      "dis": 6650,
      "Ġunus": 6651,
      "illa": 6652,
      "ears": 6653,
      "Ġchannels": 6654,
      "ĠMag": 6655,
      "lements": 6656,
      "iform": 6657,
      "Many": 6658,
      "Ġvisitors": 6659,
      "Ġagree": 6660,
      "Ġrestaur": 6661,
      "Ġlose": 6662,
      "ĠLake": 6663,
      "Ġwire": 6664,
      "Ġgun": 6665,
      "Ġimmediate": 6666,
      "found": 6667,
      "pal": 6668,
      "Pl": 6669,
      "attle": 6670,
      "Ġcomplicated": 6671,
      "Ġqualities": 6672,
      "oxide": 6673,
      "CO": 6674,
      "ĠPo": 6675,
      "During": 6676,
      "Ġhappening": 6677,
      "Ġconcentr": 6678,
      "acts": 6679,
      "Ġpolice": 6680,
      "Ġoccasion": 6681,
      "Ġjump": 6682,
      "Ġextended": 6683,
      "ittle": 6684,
      "Ġhouses": 6685,
      "Ġages": 6686,
      "Ġsatisfact": 6687,
      "Ġdut": 6688,
      "ĊĠĠĠĠĠĠĠĠĠĠĠ": 6689,
      "Ġpreparation": 6690,
      "Ġscenarios": 6691,
      "Ġaccum": 6692,
      "Ġspark": 6693,
      "Ġprominent": 6694,
      "Ġwouldn": 6695,
      "Te": 6696,
      "Ġvariations": 6697,
      "edy": 6698,
      "Ġexperiments": 6699,
      "38": 6700,
      "Ġintense": 6701,
      "hist": 6702,
      "ĠSer": 6703,
      "Ġforming": 6704,
      "Ġexcitement": 6705,
      "ums": 6706,
      "Ġkeeps": 6707,
      "Acc": 6708,
      "Ġtheories": 6709,
      "Ġallerg": 6710,
      "Ġprove": 6711,
      "Ġracial": 6712,
      "Ġarise": 6713,
      "Ġintroduction": 6714,
      "Next": 6715,
      "Ġproport": 6716,
      "Ġmanif": 6717,
      "Ġfill": 6718,
      "arant": 6719,
      "Ġpartner": 6720,
      "Ġeld": 6721,
      "Ġcalculate": 6722,
      "cies": 6723,
      "ĠNature": 6724,
      "Ġecosystems": 6725,
      "Ġpra": 6726,
      "Ġforth": 6727,
      "Ġraw": 6728,
      "Ġmostly": 6729,
      "Ġdebates": 6730,
      "Ġregist": 6731,
      "Ġinjuries": 6732,
      "Ġaccommod": 6733,
      "Ġdivided": 6734,
      "ĠFoundation": 6735,
      "BC": 6736,
      "Ġtact": 6737,
      "Ġobservations": 6738,
      "ĠIr": 6739,
      "Ġneut": 6740,
      "Ġunw": 6741,
      "Ġwebsites": 6742,
      "Ġunity": 6743,
      "Ġlik": 6744,
      "Ġcry": 6745,
      "ĠCD": 6746,
      "RO": 6747,
      "Ġhorse": 6748,
      "ras": 6749,
      "Ġfest": 6750,
      "forcement": 6751,
      "ĠYet": 6752,
      "Ġvideos": 6753,
      "ocking": 6754,
      "Ġunknown": 6755,
      "Ġ186": 6756,
      "Ġgradually": 6757,
      "Ġvaccine": 6758,
      "ĠEv": 6759,
      "Ġclick": 6760,
      "Ġvillage": 6761,
      "Ġaims": 6762,
      "ĠFederal": 6763,
      "Ġdesigning": 6764,
      "Ġminimum": 6765,
      "Ġsolving": 6766,
      "Ġwidespread": 6767,
      "Ġquiet": 6768,
      "ĠEth": 6769,
      "Ġshell": 6770,
      "iology": 6771,
      "ĠStrateg": 6772,
      "`,": 6773,
      "Ġgro": 6774,
      "Ġworlds": 6775,
      "state": 6776,
      "ĠFort": 6777,
      "Ġaccident": 6778,
      "eath": 6779,
      "ĠSa": 6780,
      "ĠHam": 6781,
      "what": 6782,
      "irt": 6783,
      "Ġachieving": 6784,
      "RE": 6785,
      "bles": 6786,
      "Ġoutl": 6787,
      "Ġconven": 6788,
      "spec": 6789,
      "Ġerrors": 6790,
      "lar": 6791,
      "ĠDan": 6792,
      "Ġplate": 6793,
      "Ġtypical": 6794,
      "Gen": 6795,
      "isp": 6796,
      "Ġstored": 6797,
      "Ġdrinking": 6798,
      "Ġnurs": 6799,
      "eting": 6800,
      "oples": 6801,
      "Ġspo": 6802,
      "gon": 6803,
      "ĠLong": 6804,
      "Ġdiagnosis": 6805,
      "ĠSea": 6806,
      "Ġforg": 6807,
      "eling": 6808,
      "Ġadopted": 6809,
      "Ġtheme": 6810,
      "Ġaest": 6811,
      "import": 6812,
      "Ġmanufacturing": 6813,
      "ferent": 6814,
      "Ġexpensive": 6815,
      "ĠPlease": 6816,
      "Ġcrime": 6817,
      "opy": 6818,
      "Ġprev": 6819,
      "Ġranging": 6820,
      "Ġworksh": 6821,
      "Ġteeth": 6822,
      "Sp": 6823,
      "ĠBuilding": 6824,
      "Ġteen": 6825,
      "Ġhardware": 6826,
      "uels": 6827,
      "Ġclosed": 6828,
      "Ġcolonial": 6829,
      "ĠSoviet": 6830,
      "My": 6831,
      "ĠDig": 6832,
      "ĠOffice": 6833,
      "arness": 6834,
      "Ġelectron": 6835,
      "ada": 6836,
      "Ġcontributed": 6837,
      "Ġaqu": 6838,
      "ĠDise": 6839,
      "Ġdepends": 6840,
      "resent": 6841,
      "ograp": 6842,
      "Ġnaturally": 6843,
      "Ġintercon": 6844,
      "Ġmeditation": 6845,
      "Ġsurvive": 6846,
      "Ġfif": 6847,
      "Ġnovels": 6848,
      "Ġbroken": 6849,
      "Ġcolleagues": 6850,
      "ĠLibrary": 6851,
      "Ġarmy": 6852,
      "bert": 6853,
      "ishment": 6854,
      "Ġbowl": 6855,
      "burg": 6856,
      "gments": 6857,
      "Ġcontributes": 6858,
      "ĠChic": 6859,
      "ka": 6860,
      "erative": 6861,
      "ĠRevolution": 6862,
      "Ġgrab": 6863,
      "ĠIll": 6864,
      "asting": 6865,
      "Ġauthorities": 6866,
      "Ġpurchase": 6867,
      "Ġgal": 6868,
      "Ġvoices": 6869,
      "ĠBro": 6870,
      "ĠGroup": 6871,
      "ĠAnalysis": 6872,
      "Ġrevealed": 6873,
      "Ġsurfaces": 6874,
      "Ġgirl": 6875,
      "Ġpig": 6876,
      "no": 6877,
      "riting": 6878,
      "Ġcustoms": 6879,
      "Ġyounger": 6880,
      "Ġcompelling": 6881,
      "Ġchart": 6882,
      "Ġimpossible": 6883,
      "levision": 6884,
      "Ġperman": 6885,
      "Ind": 6886,
      "Ġsed": 6887,
      "ĠChoose": 6888,
      "Ġflavors": 6889,
      "Ġsoph": 6890,
      "Ġevaluation": 6891,
      "ĠEarly": 6892,
      "Ġpil": 6893,
      "Ġinequ": 6894,
      "Ġdust": 6895,
      "aked": 6896,
      "Ġcontrovers": 6897,
      "Ġcardi": 6898,
      "outs": 6899,
      "Ġtension": 6900,
      "ĠGlobal": 6901,
      "Ġshot": 6902,
      "Ġsubsequent": 6903,
      "Ġcourses": 6904,
      "Ġbreathing": 6905,
      "Ġindependence": 6906,
      "Ġphysics": 6907,
      "Ġdrop": 6908,
      "Ġsight": 6909,
      "Ġlingu": 6910,
      "la": 6911,
      "Ġstre": 6912,
      "Ġinteractive": 6913,
      "ĠCompany": 6914,
      "ĠUK": 6915,
      "rey": 6916,
      "Ġflight": 6917,
      "ocolate": 6918,
      "cope": 6919,
      "Ġwarming": 6920,
      "Ġpromise": 6921,
      "ĠApplic": 6922,
      "mun": 6923,
      "idential": 6924,
      "Ġcart": 6925,
      "Ġvac": 6926,
      "Ġcontexts": 6927,
      "Ġdesire": 6928,
      "Ġdreams": 6929,
      "ĠLook": 6930,
      "Ġlifestyle": 6931,
      "Ġachieved": 6932,
      "Ġsad": 6933,
      "Ġcomprom": 6934,
      "Ġstaying": 6935,
      "rine": 6936,
      "Ġpure": 6937,
      "Ġreput": 6938,
      "Ġtargeted": 6939,
      "Ġcelebrate": 6940,
      "Ñĥ": 6941,
      "Ġtack": 6942,
      "ĠKonpep": 6943,
      "Ġextent": 6944,
      "Ġextensive": 6945,
      "Ġgreenhouse": 6946,
      "oir": 6947,
      "phone": 6948,
      "Ġsan": 6949,
      "Ġbot": 6950,
      "Ġ35": 6951,
      "yt": 6952,
      "Ġassemb": 6953,
      "Ġseam": 6954,
      "Ġwilling": 6955,
      "Ġmathematics": 6956,
      "Ġwife": 6957,
      "Ġcouple": 6958,
      "Ġvulnerable": 6959,
      "Ġsin": 6960,
      "ĠUltimately": 6961,
      "Ġcounsel": 6962,
      "Ġrealize": 6963,
      "Ġloyal": 6964,
      "Ġreduces": 6965,
      "estion": 6966,
      "ĠNatural": 6967,
      "ĠAbout": 6968,
      "Ġopinion": 6969,
      "ascular": 6970,
      "Ġnarrative": 6971,
      "ĠVirginia": 6972,
      "Ġinflam": 6973,
      "gi": 6974,
      "Ġagreement": 6975,
      "Ġhighlighting": 6976,
      "inn": 6977,
      "ĠFollow": 6978,
      "onomic": 6979,
      "Ġnic": 6980,
      "Ġflexibility": 6981,
      "Ġsections": 6982,
      "Ġadequate": 6983,
      "zen": 6984,
      "Ġlargely": 6985,
      "gs": 6986,
      "ĠEmpire": 6987,
      "Ġadministration": 6988,
      "oral": 6989,
      "Ġreflection": 6990,
      "Ġpresentation": 6991,
      "Ġdescription": 6992,
      "Ġharvest": 6993,
      "ora": 6994,
      "Ġmoon": 6995,
      "Ġemployment": 6996,
      "Your": 6997,
      "fall": 6998,
      "Rec": 6999,
      "ctic": 7000,
      "ĠJohnson": 7001,
      "Ġpreparing": 7002,
      "Ġcryst": 7003,
      "ĠChristianity": 7004,
      "ĠPan": 7005,
      "Ġswim": 7006,
      "ĠFlorida": 7007,
      "ona": 7008,
      "ĠPot": 7009,
      "Ġorigins": 7010,
      "Ġcommitted": 7011,
      "Ġfaces": 7012,
      "Ġnit": 7013,
      "Ġsizes": 7014,
      "rank": 7015,
      "Ġhighlights": 7016,
      "Ġtea": 7017,
      "class": 7018,
      "Ġtone": 7019,
      "Ġrail": 7020,
      "ml": 7021,
      "ĠMo": 7022,
      "Ġrecipes": 7023,
      "Ġsport": 7024,
      "ione": 7025,
      "Ġprivacy": 7026,
      "Ġvarying": 7027,
      "Ġintent": 7028,
      "Cont": 7029,
      "body": 7030,
      "uine": 7031,
      "Ġadds": 7032,
      "Ġexpansion": 7033,
      "Ġsuffering": 7034,
      "ban": 7035,
      "Ġfly": 7036,
      "urrent": 7037,
      "Ġmedication": 7038,
      "Ġrocks": 7039,
      "Ġacceler": 7040,
      "Ġcampaigns": 7041,
      "Ġvert": 7042,
      "ola": 7043,
      "oric": 7044,
      "action": 7045,
      "Ġgraphic": 7046,
      "gers": 7047,
      "iat": 7048,
      "Ġrhyth": 7049,
      "ĠThose": 7050,
      "normal": 7051,
      "________": 7052,
      "Ġmemor": 7053,
      "ĠAsian": 7054,
      "Ġpreventing": 7055,
      "ye": 7056,
      "Ġstores": 7057,
      "eck": 7058,
      "Ġcertainly": 7059,
      "Ġgarlic": 7060,
      "Ġcrop": 7061,
      "Ġprotected": 7062,
      "Ġcompetitive": 7063,
      "ocracy": 7064,
      "Ġmechanism": 7065,
      "Ġfossil": 7066,
      "Ġalive": 7067,
      "Ġbeneath": 7068,
      "Ġimplemented": 7069,
      "Ġabsolute": 7070,
      "ĠEastern": 7071,
      "car": 7072,
      "wing": 7073,
      "Ġrub": 7074,
      "ployment": 7075,
      "Ġproduces": 7076,
      "Although": 7077,
      "Ġactively": 7078,
      "Ġlegacy": 7079,
      "Ġmoves": 7080,
      "ĠLanguage": 7081,
      "ĠPractice": 7082,
      "parent": 7083,
      "Ġcards": 7084,
      "Ġmir": 7085,
      "De": 7086,
      "ecess": 7087,
      "Ġadvances": 7088,
      "Ġimmigr": 7089,
      "ĠGet": 7090,
      "Ġnewsp": 7091,
      "Ġpressing": 7092,
      "plement": 7093,
      "rooms": 7094,
      "ĠArmy": 7095,
      "Ġspin": 7096,
      "Ġtransmission": 7097,
      "ĠPlus": 7098,
      "ini": 7099,
      "Ġpsychology": 7100,
      "`.": 7101,
      "Ġbear": 7102,
      "Ġgentle": 7103,
      "Ġrepeated": 7104,
      "Ġsharp": 7105,
      "Ġstuff": 7106,
      "ĠHome": 7107,
      "scale": 7108,
      "Ġbaking": 7109,
      "Ġfold": 7110,
      "Ġcontam": 7111,
      "ette": 7112,
      "Ġimprovements": 7113,
      "ĠGiven": 7114,
      "Ġinterpretation": 7115,
      "Ġwors": 7116,
      "ĠAdv": 7117,
      "aval": 7118,
      "Ġ500": 7119,
      "Activity": 7120,
      "ĠUnder": 7121,
      "Ġgrasp": 7122,
      "Ġinstrument": 7123,
      "Ġlighting": 7124,
      "Ġreaching": 7125,
      "Ġillustrate": 7126,
      "Ġwestern": 7127,
      "Ġcriteria": 7128,
      "weight": 7129,
      "Ġpresents": 7130,
      "Ġsurprise": 7131,
      "ihood": 7132,
      "Ġmagnetic": 7133,
      "Ġsculpt": 7134,
      "Ġprinciple": 7135,
      "Ġtrouble": 7136,
      "ĠMars": 7137,
      "ache": 7138,
      "Ġinterface": 7139,
      "edge": 7140,
      "Ġcaught": 7141,
      "Ġvivid": 7142,
      "lishing": 7143,
      "ĠHall": 7144,
      "Ġmainly": 7145,
      "fra": 7146,
      "ĠÎ": 7147,
      "Welcome": 7148,
      "Ġ189": 7149,
      "Ġruns": 7150,
      "Ġevolving": 7151,
      "ĠLeg": 7152,
      "Ġfib": 7153,
      "Ġaccordingly": 7154,
      "Ġkil": 7155,
      "level": 7156,
      "Ġagents": 7157,
      "enny": 7158,
      "itual": 7159,
      "Ġgenre": 7160,
      "Ġends": 7161,
      "31": 7162,
      "Ġmamm": 7163,
      "Ġmeasured": 7164,
      "ĠCanadian": 7165,
      "ĠPC": 7166,
      "Ġmolecules": 7167,
      "Ġcombine": 7168,
      "Ġbones": 7169,
      "ĠItalian": 7170,
      "Ġtested": 7171,
      "Ġoperate": 7172,
      "ĠPolic": 7173,
      "Ġimmun": 7174,
      "athered": 7175,
      "Ġthread": 7176,
      "Ġordinary": 7177,
      "ĠLand": 7178,
      "ĠConclusion": 7179,
      "ĠCharles": 7180,
      "ĠServices": 7181,
      "Ġenthusi": 7182,
      "Ġvisible": 7183,
      "Ġleaf": 7184,
      "Ġlights": 7185,
      "Ġaer": 7186,
      "Ġcher": 7187,
      "ushed": 7188,
      "Ġsod": 7189,
      "Ġinclusive": 7190,
      "Ġintegrating": 7191,
      "ĠBal": 7192,
      "Ġcompr": 7193,
      "Ġphenomena": 7194,
      "Ġserver": 7195,
      "Ġintegrated": 7196,
      "ÐµÐ": 7197,
      "Ġsacr": 7198,
      "Ġjoined": 7199,
      "acter": 7200,
      "Ġvitamin": 7201,
      "ĠTom": 7202,
      "ĠOcean": 7203,
      "ĠStart": 7204,
      "Ġobvious": 7205,
      "Ġrecorded": 7206,
      "raction": 7207,
      "ĠWhether": 7208,
      "aria": 7209,
      "Ġboy": 7210,
      "Ġprison": 7211,
      "uts": 7212,
      "ĠDoes": 7213,
      "ĠOrig": 7214,
      "orter": 7215,
      "Ġcomplexities": 7216,
      "Ġhonor": 7217,
      "Ġwine": 7218,
      "ĠJack": 7219,
      "Ġfixed": 7220,
      "ĠAnswer": 7221,
      "Ġdecline": 7222,
      "ĠFrank": 7223,
      "ĠChall": 7224,
      "ĠSign": 7225,
      "cience": 7226,
      "Ġtut": 7227,
      "oga": 7228,
      "ĠJose": 7229,
      "Ġobtained": 7230,
      "osh": 7231,
      "Ġconcerned": 7232,
      "imental": 7233,
      "ĠCommit": 7234,
      "DF": 7235,
      "Ġliver": 7236,
      "ĠCase": 7237,
      "Ġpersonality": 7238,
      "Ġpractitioners": 7239,
      "Ġmur": 7240,
      "num": 7241,
      "Ġcombat": 7242,
      "gans": 7243,
      "kin": 7244,
      "reens": 7245,
      "Ġequality": 7246,
      "Ġreject": 7247,
      "Ġsitting": 7248,
      "Ġtexture": 7249,
      "Ġbackgrounds": 7250,
      "hav": 7251,
      "Ġenhanced": 7252,
      "oom": 7253,
      "Ġtraits": 7254,
      "Ġnewly": 7255,
      "peut": 7256,
      "ĠPop": 7257,
      "Ġtreating": 7258,
      "Ġharmony": 7259,
      "Ġweapons": 7260,
      "onents": 7261,
      "Ġpit": 7262,
      "Ġaccepted": 7263,
      "valu": 7264,
      "Ġsubstances": 7265,
      "ĠIslamic": 7266,
      "78": 7267,
      "etime": 7268,
      "ultural": 7269,
      "Ġabund": 7270,
      "Ġvisiting": 7271,
      "Ġclient": 7272,
      "Ġveter": 7273,
      "Ġdescribes": 7274,
      "Ġrefuge": 7275,
      "ĠSpain": 7276,
      "Ġtrend": 7277,
      "ĠExt": 7278,
      "ĠBur": 7279,
      "Ġchief": 7280,
      "Ġcolorful": 7281,
      "Ġtoys": 7282,
      "ĠPet": 7283,
      "Ġpreval": 7284,
      "Ġtrauma": 7285,
      "Ġsucceed": 7286,
      "Ġabstract": 7287,
      "organ": 7288,
      "Ġgenuine": 7289,
      "Ġadventures": 7290,
      "ieval": 7291,
      "'.": 7292,
      "Ġstead": 7293,
      "ĠMont": 7294,
      "Ġspir": 7295,
      "Ġsuddenly": 7296,
      "Ġgone": 7297,
      "uli": 7298,
      "Ġembrace": 7299,
      "Ġexhibit": 7300,
      "Ġeager": 7301,
      "ropical": 7302,
      "Ġcooperation": 7303,
      "Ġreward": 7304,
      "uality": 7305,
      "cons": 7306,
      "Ġear": 7307,
      "Ġpump": 7308,
      "Ġindicates": 7309,
      "door": 7310,
      "Ġ1999": 7311,
      "urric": 7312,
      "Ġexperiencing": 7313,
      "but": 7314,
      "Ġconstantly": 7315,
      "Ġlemon": 7316,
      "Ġpassing": 7317,
      "Ġgeomet": 7318,
      "tles": 7319,
      "ĠName": 7320,
      "Ġentreprene": 7321,
      "Dr": 7322,
      "itative": 7323,
      "oven": 7324,
      "Ġcoastal": 7325,
      "rin": 7326,
      "orses": 7327,
      "Ġsongs": 7328,
      "Ġmerely": 7329,
      "list": 7330,
      "Ġmac": 7331,
      "Ġcomments": 7332,
      "American": 7333,
      "Ġtwice": 7334,
      "anda": 7335,
      "Ġsunlight": 7336,
      "Ġcritically": 7337,
      "istical": 7338,
      "Ġbust": 7339,
      "ĠPlace": 7340,
      "iture": 7341,
      "Ġscenes": 7342,
      "Ġconcentration": 7343,
      "Ġfro": 7344,
      "Ġcourage": 7345,
      "ictionary": 7346,
      "Ġanticip": 7347,
      "luding": 7348,
      "Ġpregnancy": 7349,
      "Ġinterconnected": 7350,
      "Ġhappiness": 7351,
      "ĠMill": 7352,
      "ĠSym": 7353,
      "Ġcyber": 7354,
      "Ġconstra": 7355,
      "Ġdimensions": 7356,
      "Ġfitness": 7357,
      "Ġdefe": 7358,
      "model": 7359,
      "AA": 7360,
      "ĠJam": 7361,
      "Ġnone": 7362,
      "Ġmarriage": 7363,
      "IL": 7364,
      "Ġgreatly": 7365,
      "etics": 7366,
      "Ġentry": 7367,
      "real": 7368,
      "asures": 7369,
      "Ġreflecting": 7370,
      "ĠMeanwhile": 7371,
      "inding": 7372,
      "US": 7373,
      "Ġrelevance": 7374,
      "Ġframe": 7375,
      "andon": 7376,
      "Ġequally": 7377,
      "Ġexcessive": 7378,
      "Ġavailability": 7379,
      "Ġundersc": 7380,
      "ĠHy": 7381,
      "Remember": 7382,
      "ĠHenry": 7383,
      "Ġunusual": 7384,
      "Ġwriter": 7385,
      "Ġwonderful": 7386,
      "rem": 7387,
      "Ġbringing": 7388,
      "Ġinspiring": 7389,
      "stein": 7390,
      "Ġdisturb": 7391,
      "Ġorient": 7392,
      "ĠRob": 7393,
      "icy": 7394,
      "Ġ(\"": 7395,
      "oted": 7396,
      "erals": 7397,
      "Ġble": 7398,
      "Ġopinions": 7399,
      "Ġoven": 7400,
      "Ġunless": 7401,
      "ĠMichael": 7402,
      "Ab": 7403,
      "Ġbrows": 7404,
      "Ġtomat": 7405,
      "Ġattitudes": 7406,
      "war": 7407,
      "Ġol": 7408,
      "ĠTem": 7409,
      "Ġchoosing": 7410,
      "Ġlegs": 7411,
      "Ġdiscoveries": 7412,
      "ĠPhot": 7413,
      "Ġdifficulties": 7414,
      "atal": 7415,
      "Ġtoler": 7416,
      "roud": 7417,
      "ĠSystems": 7418,
      "Ġcultivate": 7419,
      "zed": 7420,
      "ĠMad": 7421,
      "ĠColumb": 7422,
      "nov": 7423,
      "Ġoral": 7424,
      "Ġvan": 7425,
      "Ġpeoples": 7426,
      "night": 7427,
      "Ġdetection": 7428,
      "pie": 7429,
      "working": 7430,
      "inf": 7431,
      "ĠSuper": 7432,
      "avery": 7433,
      "Ġpositively": 7434,
      "Ġsatisfaction": 7435,
      "ĠRad": 7436,
      "ĠNations": 7437,
      "Ġstable": 7438,
      "position": 7439,
      "Ġsocio": 7440,
      "Ġfurn": 7441,
      "ĠAdminist": 7442,
      "Ġtough": 7443,
      "Ġsolely": 7444,
      "Ġrising": 7445,
      "ĠInvest": 7446,
      "Ġmindfulness": 7447,
      "?**": 7448,
      "Ġfailed": 7449,
      "Ġtwist": 7450,
      "Ġstere": 7451,
      "Ġtrials": 7452,
      "Ġdivine": 7453,
      "Ġdisaster": 7454,
      "Ġempt": 7455,
      "Ġdoors": 7456,
      "Ġinstalled": 7457,
      "top": 7458,
      "ĠVe": 7459,
      "ĠComput": 7460,
      "Ġkindness": 7461,
      "Ġexpressed": 7462,
      "Ġbutton": 7463,
      "Ġ1980": 7464,
      "Ġcoc": 7465,
      "Ġdispl": 7466,
      "ially": 7467,
      "Ġtracking": 7468,
      "Ġmovies": 7469,
      "zil": 7470,
      "ested": 7471,
      "Ġaircraft": 7472,
      "eness": 7473,
      "ĠAnn": 7474,
      "Ġbreaking": 7475,
      "ensional": 7476,
      "ĠItaly": 7477,
      "Ġencouraged": 7478,
      "kins": 7479,
      "Ġharness": 7480,
      "mation": 7481,
      "otypes": 7482,
      "ctu": 7483,
      "Ġselecting": 7484,
      "Ġstir": 7485,
      "Ġphenomenon": 7486,
      "ĠFamily": 7487,
      "ĠRom": 7488,
      "ĠRome": 7489,
      "Ġdeaths": 7490,
      "Ġalternatives": 7491,
      "Ġfarming": 7492,
      "Ġcond": 7493,
      "ĠHaw": 7494,
      "uisine": 7495,
      "Ġfalse": 7496,
      "Ġrivers": 7497,
      "ĠConnect": 7498,
      "Ġdecrease": 7499,
      "Ġcalm": 7500,
      "Ġaudio": 7501,
      "net": 7502,
      "itely": 7503,
      "ifferent": 7504,
      "antly": 7505,
      "Ġreceiving": 7506,
      "Ġzero": 7507,
      "Ġimagination": 7508,
      "(\"": 7509,
      "orph": 7510,
      "ĠParis": 7511,
      "ceptions": 7512,
      "ua": 7513,
      "earchers": 7514,
      "Ġrelief": 7515,
      "Ġpurs": 7516,
      "ca": 7517,
      "Ġsafely": 7518,
      "Ġfantastic": 7519,
      "Ġmetab": 7520,
      "()`": 7521,
      "ĠWood": 7522,
      "overing": 7523,
      "CT": 7524,
      "44": 7525,
      "ĠReport": 7526,
      "Ġnecessarily": 7527,
      "Ġgrapp": 7528,
      "everal": 7529,
      "yme": 7530,
      "cher": 7531,
      "rowing": 7532,
      "Qu": 7533,
      "Ġturb": 7534,
      "esity": 7535,
      "Ġsecrets": 7536,
      "ĠIns": 7537,
      "Ġdownload": 7538,
      "rates": 7539,
      "Ġsecondary": 7540,
      "Ġitem": 7541,
      "Ġtelevision": 7542,
      "ĠPrin": 7543,
      "Ġthoughtfully": 7544,
      "Ġintriguing": 7545,
      "Of": 7546,
      "teen": 7547,
      "ĠNever": 7548,
      "ĠColor": 7549,
      "ĠRegular": 7550,
      "cho": 7551,
      "ĠBusiness": 7552,
      "Ġstrengths": 7553,
      "According": 7554,
      "Ġprecision": 7555,
      "Ġuniversity": 7556,
      "dered": 7557,
      "erge": 7558,
      "ĠAp": 7559,
      "ureau": 7560,
      "Ġresulted": 7561,
      "ĠEnd": 7562,
      "Ġescape": 7563,
      "ĠChicago": 7564,
      "ĠBack": 7565,
      "Ġdebt": 7566,
      "aped": 7567,
      "Ġbeneficial": 7568,
      "ĠSupport": 7569,
      "Ġcurriculum": 7570,
      "dr": 7571,
      "Ġlisted": 7572,
      "ĠAge": 7573,
      "Ġconserv": 7574,
      "Ġminimal": 7575,
      "Ġequipped": 7576,
      "ĠPlay": 7577,
      "Ġhistoric": 7578,
      "Ġemphasis": 7579,
      "Ġgathered": 7580,
      "avy": 7581,
      "Ġampl": 7582,
      "ĠFuture": 7583,
      "icious": 7584,
      "Ġstatistics": 7585,
      "ala": 7586,
      "Ġadj": 7587,
      "Ġgrad": 7588,
      "Ġfract": 7589,
      "Ġliteracy": 7590,
      "iciency": 7591,
      "Ġritual": 7592,
      "Ġpossibly": 7593,
      "itter": 7594,
      "otherapy": 7595,
      "backs": 7596,
      "Ġadoles": 7597,
      "Ġbridge": 7598,
      "ĠEncourage": 7599,
      "Ġdifficulty": 7600,
      "ĠCr": 7601,
      "ĠYoung": 7602,
      "Ġcategory": 7603,
      "Ġhonest": 7604,
      "Ġcha": 7605,
      "Ġsyndrome": 7606,
      "ki": 7607,
      "Ġbiology": 7608,
      "Ġprecious": 7609,
      "ION": 7610,
      "Ġcentered": 7611,
      "Ġmeasurements": 7612,
      "anta": 7613,
      "ĊĊĠĠĠ": 7614,
      "born": 7615,
      "Ġcater": 7616,
      "teries": 7617,
      "Ġmountains": 7618,
      "65": 7619,
      "Ġlasting": 7620,
      "Ġdanger": 7621,
      "Ġpharm": 7622,
      "cycl": 7623,
      "peutic": 7624,
      "Ġinject": 7625,
      "ĠImport": 7626,
      "Ġuniversal": 7627,
      "99": 7628,
      "Ġdepict": 7629,
      "Ġcarrying": 7630,
      "Ġyes": 7631,
      "ĠYOU": 7632,
      "Ġinhabit": 7633,
      "SS": 7634,
      "ĠSing": 7635,
      "Ġjuvenile": 7636,
      "Ġobserve": 7637,
      "Ġbiod": 7638,
      "ĠEqu": 7639,
      "Ġ1970": 7640,
      "Ġgrade": 7641,
      "Ġweakness": 7642,
      "bur": 7643,
      "ulin": 7644,
      "ella": 7645,
      "Ġprotagon": 7646,
      "Ġputting": 7647,
      "ĠGuide": 7648,
      "Ġfer": 7649,
      "Ġprospect": 7650,
      "Ġcas": 7651,
      "rue": 7652,
      "ĠBased": 7653,
      "inder": 7654,
      "ĠViet": 7655,
      "tw": 7656,
      "Ġguard": 7657,
      "umbled": 7658,
      "Ġmode": 7659,
      "Ġresponsibilities": 7660,
      "Ġteachings": 7661,
      "ÑĮ": 7662,
      "greg": 7663,
      "ĠVict": 7664,
      "Ġ45": 7665,
      "ING": 7666,
      "mates": 7667,
      "Ġkitchen": 7668,
      "198": 7669,
      "Ġvessels": 7670,
      "Ġlatter": 7671,
      "Ġforever": 7672,
      "Ġmissing": 7673,
      "ĠSil": 7674,
      "ĠShare": 7675,
      "Ġfinds": 7676,
      "Ġopposite": 7677,
      "Ġlaboratory": 7678,
      "ĠTor": 7679,
      "fish": 7680,
      "Ġattached": 7681,
      "VI": 7682,
      "Ġinfluential": 7683,
      "Ġillum": 7684,
      "48": 7685,
      "Ġdiving": 7686,
      "Ġstructural": 7687,
      "Ġobjective": 7688,
      "Ġkm": 7689,
      "ĠLily": 7690,
      "Ġvisually": 7691,
      "Ġcorrectly": 7692,
      "Ġfiber": 7693,
      "isticated": 7694,
      "isco": 7695,
      "ĠGal": 7696,
      "ĠPolit": 7697,
      "Ġdoubt": 7698,
      "Ġguarant": 7699,
      "angle": 7700,
      "Ġabandon": 7701,
      "Ġdepos": 7702,
      "Ġecological": 7703,
      "Ġgiant": 7704,
      "agram": 7705,
      "Ġworse": 7706,
      "ĠStreet": 7707,
      "Ġdelves": 7708,
      "theless": 7709,
      "umps": 7710,
      "Ġ31": 7711,
      "Ġestimates": 7712,
      "imer": 7713,
      "Ġwhatever": 7714,
      "Ġ1998": 7715,
      "ĠIP": 7716,
      "Ġchocolate": 7717,
      "Ġauton": 7718,
      "Ġterritory": 7719,
      "irds": 7720,
      "Ġbigger": 7721,
      "ĠProfessor": 7722,
      "CD": 7723,
      "ĠFace": 7724,
      "Ġselective": 7725,
      "indu": 7726,
      "Ġselling": 7727,
      "ĠFact": 7728,
      "Ġdil": 7729,
      "Ġ32": 7730,
      "Ġrecon": 7731,
      "ĠWall": 7732,
      "Ġneither": 7733,
      "ults": 7734,
      "ĠInit": 7735,
      "Ġtransc": 7736,
      "Ġdensity": 7737,
      "afety": 7738,
      "Ġspat": 7739,
      "Ġexplicit": 7740,
      "Ġimagery": 7741,
      "Ġmystery": 7742,
      "Ġfolk": 7743,
      "Ġwww": 7744,
      "ĠAnaly": 7745,
      "Ġinnovations": 7746,
      "ĠFocus": 7747,
      "Ġdaughter": 7748,
      "ĠIndust": 7749,
      "Ġdioxide": 7750,
      "ĠAvoid": 7751,
      "anes": 7752,
      "sem": 7753,
      "ĠSpecial": 7754,
      "Ġmeasuring": 7755,
      "Ġlegislation": 7756,
      "Ġinfected": 7757,
      "anting": 7758,
      "ailing": 7759,
      "Ġcomprehension": 7760,
      "Ġhier": 7761,
      "uris": 7762,
      "App": 7763,
      "ĠCommunity": 7764,
      "ĠCarolina": 7765,
      "erious": 7766,
      "Ġpand": 7767,
      "Ġneu": 7768,
      "Ġcontrols": 7769,
      "Ġwish": 7770,
      "Ġbanks": 7771,
      "ĠCamp": 7772,
      "acher": 7773,
      "ĠSupp": 7774,
      "ĠClimate": 7775,
      "Ġparallel": 7776,
      "actions": 7777,
      "Ġpapers": 7778,
      "Ġended": 7779,
      "Ġnecessit": 7780,
      "Ġadopt": 7781,
      "stone": 7782,
      "ostic": 7783,
      "Ġpaths": 7784,
      "Ġped": 7785,
      "opedia": 7786,
      "She": 7787,
      "Ġdt": 7788,
      "Ġraising": 7789,
      "opt": 7790,
      "cium": 7791,
      "Ġdepart": 7792,
      "Ġbranches": 7793,
      "rier": 7794,
      "Ġsummar": 7795,
      "Ġtoy": 7796,
      "ĠOnline": 7797,
      "ĠAP": 7798,
      "ĠLab": 7799,
      "Ġexpanding": 7800,
      "Ġexplains": 7801,
      "See": 7802,
      "Ġsheet": 7803,
      "Ġversions": 7804,
      "Ġhealthier": 7805,
      "Ġfounded": 7806,
      "date": 7807,
      "osion": 7808,
      "Ġshut": 7809,
      "Ġregulation": 7810,
      "Ġequival": 7811,
      "====": 7812,
      "Ġintegrity": 7813,
      "Ġtheoretical": 7814,
      "Ġcontained": 7815,
      "Ġgram": 7816,
      "Ġconsiderations": 7817,
      "Ġrevenue": 7818,
      "Ġhus": 7819,
      "Ġbalanced": 7820,
      "ĠMove": 7821,
      "Ġproud": 7822,
      "Ġrab": 7823,
      "Can": 7824,
      "Ġneural": 7825,
      "Ġsupplement": 7826,
      "Ġoriginally": 7827,
      "ĠChristians": 7828,
      "Ġsophisticated": 7829,
      "ĠLittle": 7830,
      "hesis": 7831,
      "Ġtaxes": 7832,
      "Ġdistrict": 7833,
      "Ġreflects": 7834,
      "Ġdisabilities": 7835,
      "airy": 7836,
      "')": 7837,
      "Ġvig": 7838,
      "Ġpartnerships": 7839,
      "EO": 7840,
      "Ġpron": 7841,
      "Ġconsciousness": 7842,
      "Ġcooked": 7843,
      "ĠTimes": 7844,
      "Ġessence": 7845,
      "Ġcriminal": 7846,
      "Ġplenty": 7847,
      "oston": 7848,
      "Ġbreaks": 7849,
      "Ġemphasizing": 7850,
      "Ġceremon": 7851,
      "Ġdefense": 7852,
      "SC": 7853,
      "erb": 7854,
      "sey": 7855,
      "utch": 7856,
      "Ġcolumn": 7857,
      "Ġbath": 7858,
      "ĠMa": 7859,
      "lude": 7860,
      "IG": 7861,
      "ĠChange": 7862,
      "Ġ188": 7863,
      "fast": 7864,
      "Ġdecade": 7865,
      "ĠCommittee": 7866,
      "Ġcompos": 7867,
      "Ġpromising": 7868,
      "Ñı": 7869,
      "Ġtale": 7870,
      "ĠContin": 7871,
      "Ġinsects": 7872,
      "itals": 7873,
      "ĠGeorg": 7874,
      "ih": 7875,
      "ĠMult": 7876,
      "Inst": 7877,
      "ĠPeter": 7878,
      "Ġdedication": 7879,
      "ĠCrit": 7880,
      "Ġsession": 7881,
      "ĠTry": 7882,
      "Ġroof": 7883,
      "ĠSouthern": 7884,
      "ruption": 7885,
      "cel": 7886,
      "irty": 7887,
      "Ġdepartment": 7888,
      "heric": 7889,
      "Ġconfir": 7890,
      "ĠTimmy": 7891,
      "ĠOnly": 7892,
      "Ġchest": 7893,
      "Ġpossibility": 7894,
      "Ġscenario": 7895,
      "Ġinher": 7896,
      "Ġmigr": 7897,
      "ĠAustralian": 7898,
      "Ġframeworks": 7899,
      "data": 7900,
      "ita": 7901,
      "Ġhabitats": 7902,
      "Understanding": 7903,
      "words": 7904,
      "Ġstreets": 7905,
      "Ġorgans": 7906,
      "Ġtang": 7907,
      "Ġclassical": 7908,
      "Ġestimate": 7909,
      "Ã¼": 7910,
      "ĠAppro": 7911,
      "Ġdietary": 7912,
      "Ġdelicate": 7913,
      "Ġhob": 7914,
      "ĠScott": 7915,
      "Ġsoul": 7916,
      "Ġseconds": 7917,
      "ustain": 7918,
      "Ġdisag": 7919,
      "ustom": 7920,
      "gov": 7921,
      "ulary": 7922,
      "asters": 7923,
      "Ġslic": 7924,
      "Ġmigration": 7925,
      "Ġentities": 7926,
      "Ġestablishing": 7927,
      "Ġintake": 7928,
      "Ġtroops": 7929,
      "Ġfilms": 7930,
      "ading": 7931,
      "Ġcompounds": 7932,
      "Ġepis": 7933,
      "Most": 7934,
      "Ġclothes": 7935,
      "lock": 7936,
      "Ġlosing": 7937,
      "Ġevil": 7938,
      "Ġ1960": 7939,
      "Ġtrainable": 7940,
      "Ġstood": 7941,
      "Ġstunning": 7942,
      "76": 7943,
      "Ġgrid": 7944,
      "Ġsensors": 7945,
      "omach": 7946,
      "Ġreporting": 7947,
      "Ġparticipating": 7948,
      "icide": 7949,
      "ĠSpe": 7950,
      "Ġblow": 7951,
      "Ġborder": 7952,
      "Ġdow": 7953,
      "ĠUnfortunately": 7954,
      "LE": 7955,
      "Ġentered": 7956,
      "Ġhole": 7957,
      "ulates": 7958,
      "Ġquantum": 7959,
      "Ġaward": 7960,
      "Ġstatements": 7961,
      "Ġphoto": 7962,
      "Ġcats": 7963,
      "Ġdestruction": 7964,
      "Ġfever": 7965,
      "Ġoblig": 7966,
      "ĠClin": 7967,
      "ĠRichard": 7968,
      "Ġtowns": 7969,
      "ĠImpact": 7970,
      "Ġid": 7971,
      "otion": 7972,
      "Ġglobe": 7973,
      "Ġrepair": 7974,
      "Ġdelight": 7975,
      "Ġcleaning": 7976,
      "55": 7977,
      "onial": 7978,
      "ĠMD": 7979,
      "ĠOper": 7980,
      "Ġpersonalized": 7981,
      "ĠWindows": 7982,
      "Ġintensity": 7983,
      "Ġtransformed": 7984,
      "Ġattempts": 7985,
      "Ġpopularity": 7986,
      "ĠTechniques": 7987,
      "Ġreef": 7988,
      "Ġimmense": 7989,
      "ediat": 7990,
      "Ġbattery": 7991,
      "RC": 7992,
      "ĠPub": 7993,
      "outheast": 7994,
      "Ġmand": 7995,
      "how": 7996,
      "ĠBig": 7997,
      "IDS": 7998,
      "Ġemerge": 7999,
      "ĠResources": 8000,
      "Ġminimizing": 8001,
      "ĠOl": 8002,
      "Ġpowder": 8003,
      "Ġscientist": 8004,
      "cribe": 8005,
      "Other": 8006,
      "Ġpushing": 8007,
      "agraph": 8008,
      "Ġscore": 8009,
      "Ġ300": 8010,
      "ountered": 8011,
      "Ġdemonstrates": 8012,
      "Ġratio": 8013,
      "Ġpeers": 8014,
      "ĠCheck": 8015,
      "Ġfosters": 8016,
      "Ġcorresponding": 8017,
      "inction": 8018,
      "Ġwel": 8019,
      "Ġconcrete": 8020,
      "Ġzone": 8021,
      "ĠEns": 8022,
      "solving": 8023,
      "storm": 8024,
      "Ġ1997": 8025,
      "ounce": 8026,
      "ulty": 8027,
      "Ġstated": 8028,
      "ĠBrazil": 8029,
      "Ġkne": 8030,
      "Ġscat": 8031,
      "ĠTop": 8032,
      "ĠGrand": 8033,
      "Ġbag": 8034,
      "ĠBrown": 8035,
      "Ġsacred": 8036,
      "rot": 8037,
      "Ġboys": 8038,
      "Ġathletes": 8039,
      "Ġnob": 8040,
      "uten": 8041,
      "Ġsubtle": 8042,
      "Ġcups": 8043,
      "Ġfinished": 8044,
      "Ġculinary": 8045,
      "Ġedges": 8046,
      "Ġencountered": 8047,
      "ttps": 8048,
      "Ġships": 8049,
      "Ġcircle": 8050,
      "Ġfishing": 8051,
      "Ġroads": 8052,
      "Ġevening": 8053,
      "Ġslavery": 8054,
      "Ġpromotes": 8055,
      "Today": 8056,
      "ĠIII": 8057,
      "Ġunable": 8058,
      "Ġmolecular": 8059,
      "ĠDigital": 8060,
      "cul": 8061,
      "Ġmild": 8062,
      "Ġconvert": 8063,
      "Ġbol": 8064,
      "Ġnurt": 8065,
      "Ġhoney": 8066,
      "Ġoutbre": 8067,
      "Ġextend": 8068,
      "Ġplanned": 8069,
      "cal": 8070,
      "ession": 8071,
      "pling": 8072,
      "Ġlaunch": 8073,
      "Ġhypothes": 8074,
      "BN": 8075,
      "under": 8076,
      "rink": 8077,
      "ĠThroughout": 8078,
      "hma": 8079,
      "ĠAcademy": 8080,
      "economic": 8081,
      "Ġvolcan": 8082,
      "Ġsurroundings": 8083,
      "Ġemployee": 8084,
      "Ġavoiding": 8085,
      "HO": 8086,
      "Ġdetermining": 8087,
      "Ġobservation": 8088,
      "Ġoutcome": 8089,
      "Ġfrequent": 8090,
      "Ġflexible": 8091,
      "Ġphotography": 8092,
      "ĠIdentify": 8093,
      "Ġshifts": 8094,
      "natural": 8095,
      "Ġislands": 8096,
      "ĠIN": 8097,
      "ilation": 8098,
      "roscop": 8099,
      ".|": 8100,
      "eday": 8101,
      "Ġangle": 8102,
      "Ġbibl": 8103,
      "Ġlists": 8104,
      "Ġearthqu": 8105,
      "ĠThough": 8106,
      "Ġbustling": 8107,
      "awn": 8108,
      "azine": 8109,
      "Ġdivision": 8110,
      "Ġjuice": 8111,
      "Ġbrave": 8112,
      "vision": 8113,
      "Ġassets": 8114,
      "Ġhumor": 8115,
      "Ġnest": 8116,
      "otton": 8117,
      "tics": 8118,
      "ĠWhere": 8119,
      "Ġlaid": 8120,
      "Ġstruggling": 8121,
      "Ġacceptance": 8122,
      "Ġcontainer": 8123,
      "Ġcontrolling": 8124,
      "hero": 8125,
      "Ġhydro": 8126,
      "Ġsurrounded": 8127,
      "ĠTrends": 8128,
      "Ġmanager": 8129,
      "Le": 8130,
      "usal": 8131,
      "Ġutilize": 8132,
      "ĠEss": 8133,
      "ĠDar": 8134,
      "ĠFour": 8135,
      "Ġmoisture": 8136,
      "ĠAny": 8137,
      "ĠMartin": 8138,
      "mers": 8139,
      "Ġhurt": 8140,
      "ĠEmbra": 8141,
      "matic": 8142,
      "vin": 8143,
      "Ġannounced": 8144,
      "Ġmotivation": 8145,
      "IP": 8146,
      "Ġuniform": 8147,
      "ĠVer": 8148,
      "olves": 8149,
      "Ġdesigners": 8150,
      "Ġsuffer": 8151,
      "cture": 8152,
      "âĢĿ.": 8153,
      "rid": 8154,
      "elfare": 8155,
      "ping": 8156,
      "Ġthrive": 8157,
      "ĠSecurity": 8158,
      "Ġdomain": 8159,
      "itting": 8160,
      "Ġknowledgeable": 8161,
      "ĠDisease": 8162,
      "test": 8163,
      "Ġtip": 8164,
      "ĠBank": 8165,
      "Ġsensitivity": 8166,
      "ĠAtlantic": 8167,
      "Me": 8168,
      "ĠThree": 8169,
      "Ġpin": 8170,
      "ĠJava": 8171,
      "Ġartwork": 8172,
      "Ġmini": 8173,
      "ĠDid": 8174,
      "Ġbask": 8175,
      "Ġfriendship": 8176,
      "Ġdates": 8177,
      "ude": 8178,
      "Ġnervous": 8179,
      "Ġtwenty": 8180,
      "Ġchances": 8181,
      "Ġpeak": 8182,
      "ĠCultural": 8183,
      "Ġformula": 8184,
      "Ġsomeday": 8185,
      "Ġreinfor": 8186,
      "Ġelectro": 8187,
      "Ġprotective": 8188,
      "Ġlegisl": 8189,
      "RA": 8190,
      "ston": 8191,
      "Ġcoverage": 8192,
      "Ġsentences": 8193,
      "ĠJoseph": 8194,
      "ĠOpt": 8195,
      "Ġdevelopers": 8196,
      "Ġinclus": 8197,
      "ĠDiscuss": 8198,
      "Ġ1996": 8199,
      "Ġstew": 8200,
      "Ġaside": 8201,
      "aware": 8202,
      "ĠMethod": 8203,
      "Ġrecall": 8204,
      "Ġmetaph": 8205,
      "Ġdominant": 8206,
      "emia": 8207,
      "osph": 8208,
      "mond": 8209,
      "Ġcaptured": 8210,
      "asted": 8211,
      "ĠKh": 8212,
      "Ġnegoti": 8213,
      "Ġvote": 8214,
      "Ġcollaborative": 8215,
      "Ġsequences": 8216,
      "Ġexplanation": 8217,
      "Ġepid": 8218,
      "ĠBoston": 8219,
      "Ġminute": 8220,
      "roductive": 8221,
      "istant": 8222,
      "Ġperpet": 8223,
      "Ġconsiderable": 8224,
      "ĠForest": 8225,
      "Ġsteel": 8226,
      "Ġrect": 8227,
      "Ġrose": 8228,
      "Ġnine": 8229,
      "Ġsafegu": 8230,
      "Ġcomparison": 8231,
      "47": 8232,
      "Ġindu": 8233,
      "ĠBill": 8234,
      "ĠProcess": 8235,
      "Ġdriven": 8236,
      "Ġsurprising": 8237,
      "Ġgathering": 8238,
      "Ġreviews": 8239,
      "Ġsatellite": 8240,
      "Ġcash": 8241,
      "ĠParty": 8242,
      "ĠIde": 8243,
      "Ġscar": 8244,
      "ĠUnlike": 8245,
      "Ġinvestigate": 8246,
      "ĠMel": 8247,
      "Py": 8248,
      "ĠGard": 8249,
      "ĠValley": 8250,
      "Ġshares": 8251,
      "Ġidentification": 8252,
      "Ġvector": 8253,
      "Ġfalls": 8254,
      "Ġachievements": 8255,
      "Ġentertainment": 8256,
      "oval": 8257,
      "Ġshop": 8258,
      "Ġbuying": 8259,
      "nce": 8260,
      "Ġease": 8261,
      "Ġfinger": 8262,
      "elled": 8263,
      "Ġrecre": 8264,
      "Ġtargets": 8265,
      "breaking": 8266,
      "igan": 8267,
      "Ġowner": 8268,
      "Ġlaunched": 8269,
      "eterm": 8270,
      "Ġreplaced": 8271,
      "Ġhes": 8272,
      "Ġexplaining": 8273,
      "IA": 8274,
      "Ġstrive": 8275,
      "Ġinvolvement": 8276,
      "Ġownership": 8277,
      "Ġtissues": 8278,
      "?âĢĿ": 8279,
      "ĠProm": 8280,
      "Expl": 8281,
      "Ġassumptions": 8282,
      "Ġterror": 8283,
      "Ġfertil": 8284,
      "ĠLG": 8285,
      "forest": 8286,
      "ĠProvide": 8287,
      "Ġrigorous": 8288,
      "Ġadaptation": 8289,
      "Ġregulatory": 8290,
      "called": 8291,
      "ĠThanks": 8292,
      "ĠSpirit": 8293,
      "df": 8294,
      "Ġchrom": 8295,
      "Ġshoot": 8296,
      "Ġcovers": 8297,
      "points": 8298,
      "Ġtom": 8299,
      "Ġdispos": 8300,
      "Ġattach": 8301,
      "bered": 8302,
      "Ġmarried": 8303,
      "Ġportray": 8304,
      "exp": 8305,
      "uthor": 8306,
      "Ġstriking": 8307,
      "])": 8308,
      "host": 8309,
      "Ġcollecting": 8310,
      "istance": 8311,
      "Ġsuit": 8312,
      "Ġrid": 8313,
      "issance": 8314,
      "clusive": 8315,
      "ĠSelect": 8316,
      "Ġsmoke": 8317,
      "Ġroute": 8318,
      "Ġcab": 8319,
      "Ġcorrel": 8320,
      "ĠEmily": 8321,
      "ĠSat": 8322,
      "Ġcomprehend": 8323,
      "Ġvel": 8324,
      "Ġperm": 8325,
      "Ġproved": 8326,
      "Ġgoverning": 8327,
      "Ġelection": 8328,
      "Ġcircuit": 8329,
      "Ġneck": 8330,
      "Ġinflammation": 8331,
      "Ġhierarch": 8332,
      "Ġstrengthe": 8333,
      "ĠOF": 8334,
      "Ġpond": 8335,
      "Ġdistances": 8336,
      "ĠConstitution": 8337,
      "igious": 8338,
      "Ġfilter": 8339,
      "Ġconsistently": 8340,
      "Ġmarginalized": 8341,
      "Ġenemy": 8342,
      "aterials": 8343,
      "Ġcompens": 8344,
      "ĠStory": 8345,
      "Ġgest": 8346,
      "Ġthousand": 8347,
      "Ġeastern": 8348,
      "bar": 8349,
      "Ġnewfound": 8350,
      "Ġexpanded": 8351,
      "Ġbabies": 8352,
      "Ġpaying": 8353,
      "ila": 8354,
      "ĠEmer": 8355,
      "Ġviruses": 8356,
      "=\"": 8357,
      "ĠLim": 8358,
      "Ġhunting": 8359,
      "ĠDou": 8360,
      "Ġobserving": 8361,
      "Ġlosses": 8362,
      "Ġcrew": 8363,
      "eenth": 8364,
      "Ġdescriptions": 8365,
      "Moreover": 8366,
      "Ġphotographs": 8367,
      "LA": 8368,
      "Ġ2014": 8369,
      "Ġempty": 8370,
      "Ġadoption": 8371,
      "Ġenz": 8372,
      "Ġfeeding": 8373,
      "Ġdistributed": 8374,
      "paren": 8375,
      "Just": 8376,
      "Ġtube": 8377,
      "Ġstomach": 8378,
      "Ġmistakes": 8379,
      "Pe": 8380,
      "hor": 8381,
      "Ġthrilling": 8382,
      "Ġfairly": 8383,
      "ano": 8384,
      "Ġherbs": 8385,
      "eras": 8386,
      "arding": 8387,
      "Ġpercentage": 8388,
      "Ġmechanical": 8389,
      "Ġgrace": 8390,
      "Ġvictims": 8391,
      "Ġgif": 8392,
      "enges": 8393,
      "_{": 8394,
      "Ġtraveling": 8395,
      "Ġpermanent": 8396,
      "Ġacting": 8397,
      "Ġtribes": 8398,
      "Ġprofit": 8399,
      "Ġphysically": 8400,
      "Ġbasics": 8401,
      "inates": 8402,
      "edu": 8403,
      "through": 8404,
      "Ġshopping": 8405,
      "isation": 8406,
      "Ġgalax": 8407,
      "ĠMind": 8408,
      "olester": 8409,
      "ĠHand": 8410,
      "Ġtight": 8411,
      "ĠImplement": 8412,
      "azz": 8413,
      "Ġdamaged": 8414,
      "Ġdollars": 8415,
      "ĠCancer": 8416,
      "Ġsaving": 8417,
      "Ġgrat": 8418,
      "idity": 8419,
      "Ġsuggestions": 8420,
      "Ġtric": 8421,
      "Ġaccompan": 8422,
      "Ġmysterious": 8423,
      "Ġbeach": 8424,
      "ĠAgricult": 8425,
      "Ġdough": 8426,
      "aze": 8427,
      "Ġsmoking": 8428,
      "Ġtherapeutic": 8429,
      "ĠEr": 8430,
      "Ġhaven": 8431,
      "Ġexpenses": 8432,
      "Ġcomplement": 8433,
      "Ġfunctionality": 8434,
      "atile": 8435,
      "Ġconqu": 8436,
      "Ġenrich": 8437,
      "ugh": 8438,
      "books": 8439,
      "Ġhorses": 8440,
      "Ġnice": 8441,
      "pled": 8442,
      "Ġequation": 8443,
      "Ġmanual": 8444,
      "Ġlinguistic": 8445,
      "Ġadverse": 8446,
      "Ġmanifest": 8447,
      "ĠSecret": 8448,
      "ĠJeff": 8449,
      "ĠBab": 8450,
      "Ġinequality": 8451,
      "parency": 8452,
      "eties": 8453,
      "49": 8454,
      "Ñĭ": 8455,
      "Ġfuels": 8456,
      "Ġoutdoor": 8457,
      "Ġendless": 8458,
      "Ġeco": 8459,
      "yal": 8460,
      "Ã¶": 8461,
      "erts": 8462,
      "Ġproceed": 8463,
      "ĠFund": 8464,
      "Ġsmoothly": 8465,
      "Ġdestroyed": 8466,
      "Ġcovering": 8467,
      "Ġchat": 8468,
      "Ġcourts": 8469,
      "anged": 8470,
      "Since": 8471,
      "oln": 8472,
      "ĠJo": 8473,
      "Ġattending": 8474,
      "Ġenjoying": 8475,
      "Ġtub": 8476,
      "owers": 8477,
      "ĠOx": 8478,
      "ells": 8479,
      "Ġperse": 8480,
      "Ġven": 8481,
      "Ġinterpre": 8482,
      "Ġrelation": 8483,
      "Ġdelay": 8484,
      "Ġadvertising": 8485,
      "box": 8486,
      "Ġassigned": 8487,
      "Ġconstraints": 8488,
      "ĠSelf": 8489,
      "Ġchose": 8490,
      "Ġengines": 8491,
      "Ġbiggest": 8492,
      "ependent": 8493,
      "Ġthoroughly": 8494,
      "Ġaccomplish": 8495,
      "ĠMer": 8496,
      "Ġdirections": 8497,
      "uh": 8498,
      "Ġ}": 8499,
      "ouds": 8500,
      "Ġcomposed": 8501,
      "01": 8502,
      "utrition": 8503,
      "Ġconference": 8504,
      "Ġupdates": 8505,
      "Ġalter": 8506,
      "ĠNorthern": 8507,
      "Ġ1995": 8508,
      "Ġimaging": 8509,
      "Ġsurge": 8510,
      "ĠSciences": 8511,
      "Ġcosm": 8512,
      "ĠRock": 8513,
      "bridge": 8514,
      "Ġdiffer": 8515,
      "jud": 8516,
      "pha": 8517,
      "lib": 8518,
      "ĠTHE": 8519,
      "ĠLead": 8520,
      "Ġapps": 8521,
      "Ġadapted": 8522,
      "Ġfought": 8523,
      "Ġanalys": 8524,
      "Or": 8525,
      "Ġintersection": 8526,
      "Ġlie": 8527,
      "Ġseat": 8528,
      "ogy": 8529,
      "Ġwindows": 8530,
      "ĠContemporary": 8531,
      "Ġgolden": 8532,
      "Ġpermission": 8533,
      "Ġskilled": 8534,
      "Ġpriorit": 8535,
      "ĠFacebook": 8536,
      "Ġbeans": 8537,
      "Ġprovider": 8538,
      "ĠEc": 8539,
      "Ġuncom": 8540,
      "Ġapproached": 8541,
      "Ġdemonstrating": 8542,
      "fare": 8543,
      "gent": 8544,
      "Ġfav": 8545,
      "ĠSud": 8546,
      "ĠIran": 8547,
      "ĠRespond": 8548,
      "ĠChristmas": 8549,
      "Ġburning": 8550,
      "ĠTips": 8551,
      "Ġcollections": 8552,
      "Ġsigned": 8553,
      "Ġlabels": 8554,
      "*:": 8555,
      "Ġtick": 8556,
      "Ġcuisine": 8557,
      "Ġproof": 8558,
      "ovascular": 8559,
      "Ġobesity": 8560,
      "ĠScot": 8561,
      "Ġoptimize": 8562,
      "Ġequivalent": 8563,
      "Ġversus": 8564,
      "Ġlogic": 8565,
      "Ġring": 8566,
      "itarian": 8567,
      "Ġswitch": 8568,
      "Ġdistant": 8569,
      "ĠAssess": 8570,
      "Ġsavings": 8571,
      "Ġemphasize": 8572,
      "Ġperception": 8573,
      "Ġsupposed": 8574,
      "Ġcalculated": 8575,
      "Ġcreations": 8576,
      "ĠCollabor": 8577,
      "atoes": 8578,
      "ĠHoly": 8579,
      "Ġunp": 8580,
      "Ġcriticism": 8581,
      "Ġcooling": 8582,
      "only": 8583,
      "apse": 8584,
      "earing": 8585,
      "Ġinspect": 8586,
      "Ġillnesses": 8587,
      "Ġpolicym": 8588,
      "Ġnod": 8589,
      "Ġcalcium": 8590,
      "Ġconsistency": 8591,
      "Ġfo": 8592,
      "Ġassociation": 8593,
      "abil": 8594,
      "Ġrespectively": 8595,
      "Ġperfectly": 8596,
      "trans": 8597,
      "Ġdism": 8598,
      "Ġdiagnosed": 8599,
      "ects": 8600,
      "Ġincent": 8601,
      "ĠChem": 8602,
      "Ġblend": 8603,
      "Ġintegral": 8604,
      "iratory": 8605,
      "agers": 8606,
      "Ġpreservation": 8607,
      "Ġnormally": 8608,
      "Ġjuris": 8609,
      "Ġsensory": 8610,
      "ĠAdministration": 8611,
      "riz": 8612,
      "Ġmarvel": 8613,
      "Ġdipl": 8614,
      "Ġvisited": 8615,
      "Ġupdated": 8616,
      "Ġantibi": 8617,
      "onym": 8618,
      "ĠFree": 8619,
      "Ġspoke": 8620,
      "Ġmodeling": 8621,
      "ĠWal": 8622,
      "Ġpool": 8623,
      "Ġstroke": 8624,
      "Ġende": 8625,
      "Ġarchae": 8626,
      "ĠRo": 8627,
      "Ġagent": 8628,
      "Ġmedieval": 8629,
      "Ġnumer": 8630,
      "rary": 8631,
      "Ġheating": 8632,
      "Ġtempor": 8633,
      "ĠNext": 8634,
      "Ġparad": 8635,
      "Do": 8636,
      "ĠFire": 8637,
      "requ": 8638,
      "Ġminerals": 8639,
      "Ġreplied": 8640,
      "ĠBoard": 8641,
      "Ġwearing": 8642,
      "Ġenduring": 8643,
      "Ġfacility": 8644,
      "ĠImpro": 8645,
      "Ġembed": 8646,
      "Ġperceived": 8647,
      "Ġbeloved": 8648,
      "Ġparagraph": 8649,
      "ĠConservation": 8650,
      "uke": 8651,
      "Ġprohib": 8652,
      "ĠUSA": 8653,
      "Ġpropag": 8654,
      "Ġprincipal": 8655,
      "mm": 8656,
      "rices": 8657,
      "Ġcorporate": 8658,
      "Ġnuanced": 8659,
      "Ġmaintained": 8660,
      "havior": 8661,
      "Col": 8662,
      "bran": 8663,
      "oys": 8664,
      "Ġille": 8665,
      "Ġbrush": 8666,
      "ciplinary": 8667,
      "Ã³n": 8668,
      "Ġconstructed": 8669,
      "onia": 8670,
      "Ġye": 8671,
      "haust": 8672,
      "ĠLight": 8673,
      "Ġusual": 8674,
      "Ġaccessibility": 8675,
      "Ġtapest": 8676,
      "Ġhusband": 8677,
      "Ġsuns": 8678,
      "DP": 8679,
      "Ġneur": 8680,
      "Ġrent": 8681,
      "Ġstopping": 8682,
      "amine": 8683,
      "Ġsafer": 8684,
      "ĠResp": 8685,
      "Ġautomatically": 8686,
      "Ġdramatic": 8687,
      "reek": 8688,
      "Ġstumbled": 8689,
      "Ġjudgment": 8690,
      "Ġpreferred": 8691,
      "Ġgrains": 8692,
      "Ġeditor": 8693,
      "Joh": 8694,
      "Ġsuperior": 8695,
      "Ġinhib": 8696,
      "example": 8697,
      "ĠDraw": 8698,
      "Ġfunctioning": 8699,
      "Bl": 8700,
      "rant": 8701,
      "Ġblind": 8702,
      "taining": 8703,
      "ðŁ": 8704,
      "ĠObs": 8705,
      "ĠHum": 8706,
      "Ġprosper": 8707,
      "Ġspoken": 8708,
      "ped": 8709,
      "77": 8710,
      "Ġfur": 8711,
      "aved": 8712,
      "Ġhistories": 8713,
      "Ġenjoyed": 8714,
      "ĠNetwork": 8715,
      "IM": 8716,
      "ĠJac": 8717,
      "Ġsilver": 8718,
      "arks": 8719,
      "ĠRole": 8720,
      "ĠAND": 8721,
      "Ġchair": 8722,
      "ailed": 8723,
      "ĠLearn": 8724,
      "Ġdinner": 8725,
      "etary": 8726,
      "46": 8727,
      "Ġequitable": 8728,
      "Ġutility": 8729,
      "Ġsearching": 8730,
      "Ġloop": 8731,
      "izers": 8732,
      "BS": 8733,
      "Ġpy": 8734,
      "Ġles": 8735,
      "ĠFrancisco": 8736,
      "Su": 8737,
      "rical": 8738,
      "enders": 8739,
      "Ġru": 8740,
      "Ġpull": 8741,
      "ĠProp": 8742,
      "ĠDev": 8743,
      "ucky": 8744,
      "itt": 8745,
      "ĠLar": 8746,
      "Ġblending": 8747,
      "Ġbrid": 8748,
      "ĠPolicy": 8749,
      "ĠVictor": 8750,
      "Ġbike": 8751,
      "arming": 8752,
      "incoln": 8753,
      "ao": 8754,
      "tage": 8755,
      "ĠObject": 8756,
      "Ġniche": 8757,
      "specific": 8758,
      "Ġsam": 8759,
      "alities": 8760,
      "Ġstones": 8761,
      "anger": 8762,
      "Ġpublication": 8763,
      "ĠUtil": 8764,
      "ĠLGBT": 8765,
      "Ġnom": 8766,
      "ĠRoyal": 8767,
      "redict": 8768,
      "Ġartif": 8769,
      "Ġgift": 8770,
      "igma": 8771,
      "Ġworkshops": 8772,
      "Ġrecept": 8773,
      "Ġgases": 8774,
      "ĠCoast": 8775,
      "EP": 8776,
      "cor": 8777,
      "illance": 8778,
      "Ġvocabulary": 8779,
      "standing": 8780,
      "Ġbeat": 8781,
      "Ġconfusion": 8782,
      "iological": 8783,
      "ĊĠĠĠĠĠĠĠĠĠĠĠĠ": 8784,
      "Ġancestors": 8785,
      "medi": 8786,
      "Ġmarks": 8787,
      "Ġisolation": 8788,
      "made": 8789,
      "ocate": 8790,
      "ecessary": 8791,
      "ĠAlways": 8792,
      "Ġflows": 8793,
      "Ġrestrictions": 8794,
      "olesterol": 8795,
      "brew": 8796,
      "len": 8797,
      "Ġholes": 8798,
      "Ġapproved": 8799,
      "mo": 8800,
      "rous": 8801,
      "Ġuncertainty": 8802,
      "Ġpreced": 8803,
      "Ġdemocracy": 8804,
      "Ġgovernance": 8805,
      "Ġfemin": 8806,
      "Ġdecreased": 8807,
      "Ġrepresentations": 8808,
      "aled": 8809,
      "Ġexplores": 8810,
      "ĠAgency": 8811,
      "Ġmeasurement": 8812,
      "noon": 8813,
      "oured": 8814,
      "Ġenforcement": 8815,
      "Ġplane": 8816,
      "Ġphrase": 8817,
      "iances": 8818,
      "Ġanywhere": 8819,
      "Ġmeetings": 8820,
      "aska": 8821,
      "Ġrh": 8822,
      "ĠJul": 8823,
      "Ġstopped": 8824,
      "ĠGuid": 8825,
      "Ġworship": 8826,
      "Ġmales": 8827,
      "Ġnuts": 8828,
      "Ġsenior": 8829,
      "Ġharsh": 8830,
      "Ġappealing": 8831,
      "inting": 8832,
      "Ġcomplications": 8833,
      "Ġcounterpart": 8834,
      "Ġolive": 8835,
      "OL": 8836,
      "Ġstations": 8837,
      "Ġbelonging": 8838,
      "Ġtactics": 8839,
      "opyright": 8840,
      "Ġpaintings": 8841,
      "hi": 8842,
      "Ð»": 8843,
      "Ġdisput": 8844,
      "Ġinvention": 8845,
      "Ġcommunications": 8846,
      "Ġpod": 8847,
      "Ġscores": 8848,
      "icting": 8849,
      "ivered": 8850,
      "ĠMusic": 8851,
      "ĠTheory": 8852,
      "Ġorders": 8853,
      "Ġinclusivity": 8854,
      "Ġplus": 8855,
      "Ġcommission": 8856,
      "erly": 8857,
      "iana": 8858,
      "SP": 8859,
      "urches": 8860,
      "urable": 8861,
      "ruit": 8862,
      "Ġaffordable": 8863,
      "osqu": 8864,
      "ounters": 8865,
      "Ġacquired": 8866,
      "ĠCross": 8867,
      "Ġsupportive": 8868,
      "OC": 8869,
      "Ġpiv": 8870,
      "icul": 8871,
      "ami": 8872,
      "ĠRev": 8873,
      "Ġprofile": 8874,
      "Ġrooted": 8875,
      "cribed": 8876,
      "ĠSafety": 8877,
      "Ġofficers": 8878,
      "izz": 8879,
      "Ġfarms": 8880,
      "you": 8881,
      "Ġbub": 8882,
      "Ġforecast": 8883,
      "ĠMedia": 8884,
      "Sc": 8885,
      "Ġtutorial": 8886,
      "05": 8887,
      "Ġride": 8888,
      "Ġstrongly": 8889,
      "Ġmas": 8890,
      "rosoft": 8891,
      "eem": 8892,
      "Ġton": 8893,
      "ĠApplications": 8894,
      "ĠDen": 8895,
      "('": 8896,
      "reland": 8897,
      "Ġfilling": 8898,
      "ĠKingdom": 8899,
      "Ġpione": 8900,
      "dimensional": 8901,
      "ĠMach": 8902,
      "vo": 8903,
      "Ġtelling": 8904,
      "Ġinvesting": 8905,
      "rus": 8906,
      "ĠWithin": 8907,
      "olly": 8908,
      "Ġacids": 8909,
      "ools": 8910,
      "gener": 8911,
      "Ġupdate": 8912,
      "abel": 8913,
      "Ġequity": 8914,
      "erior": 8915,
      "Ġrespective": 8916,
      "Ġunn": 8917,
      "ictional": 8918,
      "Ġaddressed": 8919,
      "Ġparks": 8920,
      "Stud": 8921,
      "Ġwarning": 8922,
      "Ġharder": 8923,
      "Ġouter": 8924,
      "Ġpackage": 8925,
      "aws": 8926,
      "Ġfemales": 8927,
      "Ġ185": 8928,
      "Part": 8929,
      "iament": 8930,
      "raq": 8931,
      "ĠProper": 8932,
      "Ġflying": 8933,
      "Ġrelat": 8934,
      "Ġreveals": 8935,
      "Ġgap": 8936,
      "Ġphilosop": 8937,
      "Ġhem": 8938,
      "Ġlegend": 8939,
      "Ġharmon": 8940,
      "ustration": 8941,
      "eted": 8942,
      "Ġplanets": 8943,
      "Ġdeals": 8944,
      "Ġtor": 8945,
      "Ġpeer": 8946,
      "Ġtensions": 8947,
      "Ġbold": 8948,
      "Ġschedul": 8949,
      "esis": 8950,
      "Ġproven": 8951,
      "Ġfears": 8952,
      "Ġfans": 8953,
      "Ġmodified": 8954,
      "Ġcreature": 8955,
      "azon": 8956,
      "ĠGPT": 8957,
      "iously": 8958,
      "Ġvegetable": 8959,
      "Ġdisciplines": 8960,
      "ĠAncient": 8961,
      "Ġfourth": 8962,
      "Ġshowcase": 8963,
      "Ġmining": 8964,
      "ĠSand": 8965,
      "occer": 8966,
      "health": 8967,
      "Ġtourism": 8968,
      "ĠCa": 8969,
      "Ġtranslation": 8970,
      "ĠMen": 8971,
      "Ġoccas": 8972,
      "Ġvictory": 8973,
      "mail": 8974,
      "Ġpersonnel": 8975,
      "Ġspan": 8976,
      "Ġadversity": 8977,
      "Ġethics": 8978,
      "Ġpanel": 8979,
      "ĠSqu": 8980,
      "Ġabnormal": 8981,
      "dep": 8982,
      "ĠCook": 8983,
      "Ġcodes": 8984,
      "isition": 8985,
      "Ġborders": 8986,
      "ĠLin": 8987,
      "Ġpayment": 8988,
      "html": 8989,
      "Ġcel": 8990,
      "Ġkidney": 8991,
      "Ġfan": 8992,
      "ivals": 8993,
      "umber": 8994,
      "phones": 8995,
      "bean": 8996,
      "abeth": 8997,
      "Ġ36": 8998,
      "Ġ1994": 8999,
      "np": 9000,
      "Ġpounds": 9001,
      "ctors": 9002,
      "Ġassume": 9003,
      "ĠEp": 9004,
      "space": 9005,
      "ĠISBN": 9006,
      "Ġflag": 9007,
      "Ġeconomics": 9008,
      "ylvan": 9009,
      "Ġisolated": 9010,
      "Ġneighbors": 9011,
      "Ġpose": 9012,
      "ocols": 9013,
      "Ġdisability": 9014,
      "Ġentering": 9015,
      "Ġestate": 9016,
      "Ġdiscovering": 9017,
      "Ġdimension": 9018,
      "aired": 9019,
      "sub": 9020,
      "ĠTransform": 9021,
      "ady": 9022,
      "isters": 9023,
      "----------------------------": 9024,
      "Ġpoison": 9025,
      "ĠÐ¿": 9026,
      "Ġcrafting": 9027,
      "Ġheroes": 9028,
      "Ġrational": 9029,
      "eping": 9030,
      "Ġtemporary": 9031,
      "Ġachievement": 9032,
      "Ġspreading": 9033,
      "Â·": 9034,
      "olar": 9035,
      "ivities": 9036,
      "Ġimpressive": 9037,
      "ĠSup": 9038,
      "Ġrelaxation": 9039,
      "Ġgenerating": 9040,
      "Ġprinted": 9041,
      "Ġessentially": 9042,
      "Ġcalories": 9043,
      "Well": 9044,
      "fol": 9045,
      "Ġdense": 9046,
      "angered": 9047,
      "Ġinitiative": 9048,
      "bel": 9049,
      "ĠHill": 9050,
      "Ġspecified": 9051,
      "ĠOften": 9052,
      "Ġuncover": 9053,
      "ĠPay": 9054,
      "Ġlever": 9055,
      "ĠBeing": 9056,
      "Ġcalling": 9057,
      "Ġgeographical": 9058,
      "Ġdevast": 9059,
      "Ġproportion": 9060,
      "Ġstruck": 9061,
      "ĠMexican": 9062,
      "Ġdestination": 9063,
      "Ġutilizing": 9064,
      "ĠHor": 9065,
      "Ġquarter": 9066,
      "ĠVan": 9067,
      "Ġinhabitants": 9068,
      "ĠIreland": 9069,
      "Ġblended": 9070,
      "Ġequations": 9071,
      "Ġdress": 9072,
      "rency": 9073,
      "ĠCarl": 9074,
      "Ġexperimental": 9075,
      "Ġpoems": 9076,
      "Ġexped": 9077,
      "lymp": 9078,
      "ĠAst": 9079,
      "olds": 9080,
      "Ġmysteries": 9081,
      "Ġchopped": 9082,
      "Ġrevealing": 9083,
      "Ġenterpr": 9084,
      "plt": 9085,
      "Ġclar": 9086,
      "ĠWord": 9087,
[...]
